static unsigned char TfLiteModel_tflite[] = {
  0x1c, 0x00, 0x00, 0x00, 0x54, 0x46, 0x4c, 0x33, 0x14, 0x00, 0x20, 0x00,
  0x1c, 0x00, 0x18, 0x00, 0x14, 0x00, 0x10, 0x00, 0x0c, 0x00, 0x00, 0x00,
  0x08, 0x00, 0x04, 0x00, 0x14, 0x00, 0x00, 0x00, 0x1c, 0x00, 0x00, 0x00,
  0x8c, 0x00, 0x00, 0x00, 0xe4, 0x00, 0x00, 0x00, 0xb8, 0x26, 0x00, 0x00,
  0xc8, 0x26, 0x00, 0x00, 0x78, 0x2f, 0x00, 0x00, 0x03, 0x00, 0x00, 0x00,
  0x01, 0x00, 0x00, 0x00, 0x10, 0x00, 0x00, 0x00, 0x00, 0x00, 0x0a, 0x00,
  0x10, 0x00, 0x0c, 0x00, 0x08, 0x00, 0x04, 0x00, 0x0a, 0x00, 0x00, 0x00,
  0x0c, 0x00, 0x00, 0x00, 0x1c, 0x00, 0x00, 0x00, 0x38, 0x00, 0x00, 0x00,
  0x0f, 0x00, 0x00, 0x00, 0x73, 0x65, 0x72, 0x76, 0x69, 0x6e, 0x67, 0x5f,
  0x64, 0x65, 0x66, 0x61, 0x75, 0x6c, 0x74, 0x00, 0x01, 0x00, 0x00, 0x00,
  0x04, 0x00, 0x00, 0x00, 0x9c, 0xff, 0xff, 0xff, 0x10, 0x00, 0x00, 0x00,
  0x04, 0x00, 0x00, 0x00, 0x07, 0x00, 0x00, 0x00, 0x64, 0x65, 0x6e, 0x73,
  0x65, 0x5f, 0x34, 0x00, 0x01, 0x00, 0x00, 0x00, 0x04, 0x00, 0x00, 0x00,
  0x22, 0xd9, 0xff, 0xff, 0x04, 0x00, 0x00, 0x00, 0x07, 0x00, 0x00, 0x00,
  0x69, 0x6e, 0x70, 0x75, 0x74, 0x5f, 0x31, 0x00, 0x02, 0x00, 0x00, 0x00,
  0x34, 0x00, 0x00, 0x00, 0x04, 0x00, 0x00, 0x00, 0xdc, 0xff, 0xff, 0xff,
  0x13, 0x00, 0x00, 0x00, 0x04, 0x00, 0x00, 0x00, 0x13, 0x00, 0x00, 0x00,
  0x43, 0x4f, 0x4e, 0x56, 0x45, 0x52, 0x53, 0x49, 0x4f, 0x4e, 0x5f, 0x4d,
  0x45, 0x54, 0x41, 0x44, 0x41, 0x54, 0x41, 0x00, 0x08, 0x00, 0x0c, 0x00,
  0x08, 0x00, 0x04, 0x00, 0x08, 0x00, 0x00, 0x00, 0x12, 0x00, 0x00, 0x00,
  0x04, 0x00, 0x00, 0x00, 0x13, 0x00, 0x00, 0x00, 0x6d, 0x69, 0x6e, 0x5f,
  0x72, 0x75, 0x6e, 0x74, 0x69, 0x6d, 0x65, 0x5f, 0x76, 0x65, 0x72, 0x73,
  0x69, 0x6f, 0x6e, 0x00, 0x14, 0x00, 0x00, 0x00, 0xd0, 0x25, 0x00, 0x00,
  0xc8, 0x25, 0x00, 0x00, 0x58, 0x25, 0x00, 0x00, 0xe8, 0x24, 0x00, 0x00,
  0x78, 0x24, 0x00, 0x00, 0x5c, 0x24, 0x00, 0x00, 0xec, 0x23, 0x00, 0x00,
  0x1c, 0x1d, 0x00, 0x00, 0x0c, 0x14, 0x00, 0x00, 0xfc, 0x0a, 0x00, 0x00,
  0xec, 0x01, 0x00, 0x00, 0xbc, 0x00, 0x00, 0x00, 0xb4, 0x00, 0x00, 0x00,
  0xac, 0x00, 0x00, 0x00, 0xa4, 0x00, 0x00, 0x00, 0x9c, 0x00, 0x00, 0x00,
  0x94, 0x00, 0x00, 0x00, 0x8c, 0x00, 0x00, 0x00, 0x6c, 0x00, 0x00, 0x00,
  0x04, 0x00, 0x00, 0x00, 0xe6, 0xd9, 0xff, 0xff, 0x04, 0x00, 0x00, 0x00,
  0x58, 0x00, 0x00, 0x00, 0x0c, 0x00, 0x00, 0x00, 0x08, 0x00, 0x0e, 0x00,
  0x08, 0x00, 0x04, 0x00, 0x08, 0x00, 0x00, 0x00, 0x10, 0x00, 0x00, 0x00,
  0x28, 0x00, 0x00, 0x00, 0x00, 0x00, 0x06, 0x00, 0x08, 0x00, 0x04, 0x00,
  0x06, 0x00, 0x00, 0x00, 0x04, 0x00, 0x00, 0x00, 0x01, 0x00, 0x00, 0x00,
  0xea, 0x03, 0x00, 0x00, 0x00, 0x00, 0x0a, 0x00, 0x10, 0x00, 0x0c, 0x00,
  0x08, 0x00, 0x04, 0x00, 0x0a, 0x00, 0x00, 0x00, 0x02, 0x00, 0x00, 0x00,
  0x02, 0x00, 0x00, 0x00, 0x04, 0x00, 0x00, 0x00, 0x06, 0x00, 0x00, 0x00,
  0x32, 0x2e, 0x31, 0x32, 0x2e, 0x30, 0x00, 0x00, 0x4a, 0xda, 0xff, 0xff,
  0x04, 0x00, 0x00, 0x00, 0x10, 0x00, 0x00, 0x00, 0x31, 0x2e, 0x35, 0x2e,
  0x30, 0x00, 0x00, 0x00, 0x00, 0x00, 0x00, 0x00, 0x00, 0x00, 0x00, 0x00,
  0x68, 0xd2, 0xff, 0xff, 0x6c, 0xd2, 0xff, 0xff, 0x70, 0xd2, 0xff, 0xff,
  0x74, 0xd2, 0xff, 0xff, 0x78, 0xd2, 0xff, 0xff, 0x7c, 0xd2, 0xff, 0xff,
  0x7e, 0xda, 0xff, 0xff, 0x04, 0x00, 0x00, 0x00, 0x20, 0x01, 0x00, 0x00,
  0x3b, 0x1d, 0x5b, 0xbe, 0x42, 0xed, 0x27, 0xbe, 0xfe, 0xbd, 0xc0, 0x3e,
  0xcb, 0x05, 0x9a, 0x3e, 0xce, 0xb7, 0xad, 0xbe, 0xc9, 0xe4, 0x15, 0xbc,
  0x70, 0xc4, 0x3a, 0xbd, 0x98, 0xe3, 0x96, 0xbe, 0x3d, 0x32, 0x07, 0xbe,
  0xa2, 0xdd, 0xf3, 0xbe, 0x23, 0x23, 0x0e, 0xbd, 0xff, 0x05, 0xcd, 0xbe,
  0xfd, 0x6c, 0x07, 0x3f, 0xae, 0x60, 0x31, 0x3c, 0x57, 0x6d, 0x41, 0x3e,
  0x7b, 0x94, 0x6b, 0x3e, 0xcf, 0xef, 0xd0, 0x3d, 0x03, 0x0f, 0xbc, 0x3d,
  0x4b, 0x67, 0x45, 0x3d, 0x08, 0x93, 0xb2, 0xbe, 0x2d, 0x2a, 0x96, 0xbe,
  0xa3, 0x46, 0xce, 0x3d, 0xe7, 0x79, 0x9e, 0xbe, 0xa2, 0xad, 0x9e, 0x3e,
  0x26, 0x91, 0xcd, 0x3e, 0xf8, 0xec, 0x72, 0x3e, 0x5e, 0xde, 0x9f, 0xbf,
  0xcb, 0x4e, 0xc6, 0x3e, 0x35, 0x84, 0xae, 0x3d, 0xc2, 0x09, 0x56, 0x3e,
  0x30, 0xc2, 0x6e, 0xbf, 0xfd, 0xc1, 0xe5, 0xbe, 0x70, 0x5f, 0xa4, 0x3e,
  0xf4, 0x29, 0x54, 0xbf, 0x3d, 0xe5, 0x2f, 0xbd, 0xe0, 0xb6, 0x43, 0x3e,
  0x69, 0xec, 0x81, 0xbe, 0x9c, 0x6b, 0xbc, 0x3d, 0xe2, 0x1d, 0x8f, 0xbf,
  0xb4, 0x8a, 0x6c, 0x3d, 0x20, 0xb6, 0x29, 0x3e, 0x97, 0x68, 0xe2, 0x3e,
  0x5f, 0x4c, 0x48, 0xbf, 0x44, 0x14, 0x2b, 0xbe, 0xf2, 0x88, 0x89, 0xbd,
  0x4d, 0x86, 0xed, 0x3d, 0x24, 0xf5, 0x60, 0x3e, 0x5d, 0x08, 0x68, 0xbf,
  0xb2, 0xe4, 0xb1, 0x3d, 0x06, 0x4a, 0x3f, 0xbe, 0x50, 0xc4, 0x10, 0xbe,
  0xb1, 0x46, 0xe2, 0xbe, 0xf8, 0xac, 0xd7, 0xbb, 0xf4, 0x15, 0x46, 0xbf,
  0x78, 0xac, 0xeb, 0x3e, 0x4c, 0x2c, 0x1c, 0x3f, 0xdf, 0x39, 0x08, 0xbe,
  0x1f, 0x2a, 0x1f, 0x3e, 0x0a, 0xc8, 0x00, 0xbf, 0x1e, 0x37, 0x9f, 0x3d,
  0xb9, 0x56, 0x25, 0x3c, 0xec, 0x91, 0x2b, 0xbf, 0x3a, 0x1b, 0x87, 0x3e,
  0x51, 0x99, 0x1b, 0xbf, 0x51, 0x9d, 0xdd, 0xbe, 0x1e, 0xb1, 0x3a, 0x3e,
  0xd5, 0x6f, 0xbe, 0x3d, 0x8e, 0x16, 0x9d, 0xbe, 0x07, 0x85, 0x92, 0xbe,
  0x0a, 0x02, 0x05, 0xbf, 0x8c, 0x71, 0x7e, 0xbe, 0x4d, 0x0a, 0xa7, 0x3d,
  0xaa, 0xdb, 0xff, 0xff, 0x04, 0x00, 0x00, 0x00, 0x00, 0x09, 0x00, 0x00,
  0x8c, 0xeb, 0x1c, 0x3e, 0x74, 0xef, 0x99, 0xbb, 0x53, 0xbb, 0x14, 0xbf,
  0x7b, 0x7f, 0xf4, 0xbd, 0x60, 0x6f, 0xa1, 0xbd, 0x19, 0x54, 0xd4, 0xbe,
  0xac, 0xbe, 0x12, 0xbf, 0x4d, 0x17, 0xab, 0xbe, 0x63, 0xcf, 0xdb, 0x3c,
  0x6b, 0x59, 0xfa, 0xbe, 0x3e, 0xb4, 0xc3, 0x3c, 0xb4, 0xd0, 0xe8, 0x3e,
  0x3a, 0xfe, 0x8c, 0x3e, 0xdc, 0xcc, 0x66, 0xbe, 0x2e, 0x69, 0x12, 0x3e,
  0xe8, 0x45, 0xeb, 0x3d, 0x2e, 0x49, 0x2c, 0xbd, 0x80, 0x6a, 0x8a, 0x3d,
  0x83, 0x55, 0x78, 0x3d, 0xa5, 0x46, 0xd4, 0x3c, 0x0a, 0xad, 0xa5, 0x3e,
  0x01, 0x4a, 0x25, 0x3e, 0x6b, 0xa0, 0x32, 0xbe, 0xf1, 0xe0, 0x62, 0x3e,
  0x88, 0x97, 0xf5, 0xbc, 0x99, 0x2f, 0xc5, 0x3b, 0x2c, 0x79, 0x20, 0xbf,
  0x6e, 0xda, 0xd8, 0x3e, 0x1a, 0x8e, 0x7f, 0xbe, 0xc2, 0x3b, 0xb0, 0xbe,
  0x29, 0x16, 0xed, 0xbe, 0xc0, 0x62, 0x57, 0x3e, 0x55, 0x4a, 0xb6, 0xbe,
  0xdb, 0x71, 0xc1, 0xbd, 0xba, 0x39, 0xe1, 0xbc, 0x44, 0xfd, 0x5f, 0x3e,
  0xbe, 0x77, 0x3c, 0xbe, 0x0d, 0x2a, 0xa4, 0xbd, 0x81, 0x5f, 0x84, 0x3c,
  0x3a, 0xba, 0x43, 0x3e, 0x8d, 0x70, 0xbf, 0x3e, 0xc7, 0x89, 0x3f, 0xbe,
  0xce, 0x57, 0x89, 0x3e, 0x46, 0xd7, 0xd0, 0xbb, 0x03, 0x04, 0xb7, 0x3c,
  0xbf, 0xe9, 0xb5, 0x3e, 0xcb, 0x6e, 0xa6, 0xbe, 0xef, 0x1b, 0x76, 0x3d,
  0x62, 0xef, 0x8e, 0xbe, 0x14, 0x3b, 0x63, 0xbe, 0x8e, 0x93, 0x82, 0xbd,
  0x64, 0x6c, 0x29, 0xbc, 0xde, 0xb4, 0xb3, 0xbe, 0xa4, 0x37, 0xbe, 0xbe,
  0xf4, 0x56, 0x9b, 0x3d, 0x63, 0x78, 0xb9, 0xbe, 0x3b, 0x2a, 0x00, 0xbf,
  0xb2, 0xac, 0x13, 0xbe, 0x11, 0x7e, 0x07, 0x3e, 0x90, 0xd3, 0x56, 0xbe,
  0x60, 0xcf, 0x57, 0xbd, 0x8a, 0x2b, 0x19, 0xbe, 0x93, 0x16, 0x61, 0xbe,
  0xa4, 0x24, 0xb5, 0xbe, 0x78, 0xbc, 0x84, 0xbd, 0x80, 0x50, 0xc2, 0xbc,
  0x97, 0x40, 0xa6, 0x3e, 0xdc, 0xaa, 0x4d, 0xbd, 0x38, 0x8f, 0x42, 0xbe,
  0xa1, 0x4d, 0xae, 0x3d, 0x53, 0xef, 0xb4, 0xbd, 0xda, 0xb5, 0x48, 0xbf,
  0x0f, 0x52, 0xbb, 0x3e, 0x4c, 0xa8, 0x4b, 0xbe, 0x0b, 0xdd, 0xc0, 0xbd,
  0x64, 0x18, 0xb2, 0x3e, 0x55, 0xba, 0x53, 0x3d, 0xef, 0x2d, 0x2c, 0xbf,
  0xb2, 0x36, 0x00, 0x3e, 0xd3, 0x4f, 0xb9, 0xbd, 0x2e, 0xe0, 0xf8, 0xbe,
  0xd0, 0x87, 0x2a, 0x3d, 0xbe, 0x37, 0xe8, 0x3e, 0x7d, 0xc1, 0xdf, 0xbd,
  0x01, 0xed, 0x28, 0x3e, 0x19, 0x4a, 0x69, 0xbd, 0x34, 0x17, 0xaa, 0x3d,
  0xc6, 0x25, 0x23, 0xbf, 0x22, 0x45, 0xac, 0x3d, 0xc1, 0xcf, 0x01, 0x3e,
  0x92, 0xd7, 0xab, 0x3d, 0x88, 0xf0, 0xf2, 0x3d, 0x01, 0x2b, 0x98, 0xbd,
  0xef, 0x7c, 0x87, 0x3e, 0x3c, 0x6b, 0x1b, 0xbf, 0x08, 0xa7, 0x3c, 0xbf,
  0x3e, 0x7f, 0x9d, 0x3e, 0xcb, 0x67, 0xc3, 0x3e, 0xde, 0x5d, 0xc3, 0xbe,
  0x8e, 0xb3, 0xa9, 0xbc, 0xa7, 0xfe, 0x98, 0x3e, 0xe5, 0x82, 0x6a, 0x3e,
  0x1d, 0x80, 0xa2, 0xbe, 0xcd, 0xfe, 0xdc, 0x3d, 0x8f, 0x6e, 0x5e, 0x3e,
  0x4a, 0x16, 0x1d, 0x3e, 0x9f, 0x31, 0x0c, 0xbf, 0x1c, 0xe3, 0x21, 0x3b,
  0x95, 0x81, 0xfb, 0xbc, 0x2d, 0xc8, 0x31, 0x3d, 0xaf, 0xbd, 0x3d, 0x3e,
  0xd2, 0xae, 0xdc, 0xbe, 0x1e, 0xa9, 0x01, 0xbe, 0xef, 0x64, 0x88, 0x3b,
  0x43, 0xe8, 0x13, 0xbe, 0xb0, 0xb2, 0x97, 0x3d, 0x7e, 0x0d, 0x00, 0x3e,
  0x4a, 0xbc, 0xff, 0x3c, 0x9f, 0xfd, 0x05, 0x3f, 0xdb, 0x92, 0x3a, 0x3f,
  0x7b, 0x4e, 0xb2, 0xbd, 0x2e, 0x36, 0x48, 0xbf, 0x6f, 0xb4, 0x29, 0x3d,
  0x2b, 0x55, 0x36, 0x3e, 0x7b, 0x1a, 0xe1, 0x3d, 0x50, 0x21, 0x20, 0xbf,
  0x86, 0x4b, 0xef, 0xbd, 0x32, 0x47, 0x49, 0xbd, 0x77, 0x87, 0xed, 0xbe,
  0x03, 0x63, 0x5c, 0xbe, 0xf3, 0x61, 0x0c, 0xbe, 0xd8, 0xe9, 0xe7, 0xbd,
  0xf3, 0x32, 0xaf, 0xbe, 0xd6, 0x05, 0x21, 0x3e, 0x11, 0x97, 0xd0, 0xbe,
  0xc3, 0x00, 0x03, 0xbf, 0x25, 0xf8, 0x91, 0xbe, 0xd0, 0xe5, 0xd2, 0x3c,
  0x1c, 0xba, 0x9f, 0x3e, 0x57, 0xf2, 0x17, 0x3f, 0xd8, 0xf9, 0x86, 0x3e,
  0xec, 0xed, 0x8d, 0x3e, 0xb0, 0xe0, 0x47, 0xbe, 0x59, 0xe3, 0x9b, 0xbe,
  0x82, 0xc7, 0x81, 0x3e, 0xbe, 0x36, 0xfd, 0x3d, 0x3e, 0x87, 0x71, 0xbd,
  0x9d, 0xa7, 0xb3, 0x3c, 0xee, 0x56, 0x9f, 0x3d, 0x91, 0xe0, 0xb7, 0x3e,
  0x43, 0xc5, 0xa9, 0x3e, 0xb4, 0xa2, 0x6a, 0xbc, 0xe3, 0x6d, 0x02, 0x3f,
  0x06, 0x59, 0x16, 0xbf, 0xe0, 0x1e, 0x8c, 0xbd, 0x55, 0x99, 0xae, 0xbe,
  0x54, 0xc1, 0xa1, 0xbe, 0xbb, 0x64, 0x22, 0xbf, 0x91, 0xbf, 0x9c, 0xbc,
  0x5f, 0xdf, 0x99, 0x3c, 0x5f, 0x31, 0xbe, 0xbe, 0xa5, 0x52, 0x1d, 0xbf,
  0x02, 0x87, 0x16, 0xbf, 0xcb, 0x0c, 0x44, 0xbf, 0xbf, 0x88, 0x93, 0xbb,
  0xf4, 0xb1, 0x89, 0xbd, 0x81, 0xe4, 0x32, 0xbd, 0x41, 0xea, 0x06, 0x3f,
  0x11, 0xf5, 0xf3, 0x3c, 0xe1, 0xe4, 0x55, 0x3e, 0xc5, 0x7a, 0x80, 0x3e,
  0xc0, 0x1d, 0x91, 0xbe, 0x00, 0x00, 0x19, 0x3e, 0x62, 0x51, 0xa1, 0x3d,
  0x99, 0xd6, 0x74, 0x3d, 0x34, 0x9c, 0xd7, 0x3e, 0xc8, 0x58, 0x4f, 0x3e,
  0xb1, 0x09, 0xd8, 0xbe, 0x44, 0xd4, 0x9b, 0x3d, 0x99, 0x68, 0xe9, 0x3b,
  0x01, 0x55, 0xea, 0xbe, 0xac, 0xad, 0xae, 0xbe, 0x05, 0x4d, 0x02, 0xbe,
  0x13, 0x37, 0xa4, 0x3d, 0xff, 0xac, 0xce, 0xbe, 0x50, 0x3c, 0xe5, 0xbe,
  0x46, 0x1d, 0x26, 0xbf, 0xc0, 0xe6, 0x29, 0xbf, 0x82, 0xce, 0x22, 0xbd,
  0x4b, 0x55, 0xe1, 0xbe, 0xa8, 0xb7, 0x59, 0xbe, 0x6c, 0xd3, 0x49, 0x3e,
  0x57, 0x71, 0x7e, 0x3e, 0x31, 0x34, 0x3c, 0x3e, 0xd6, 0x59, 0xe4, 0xbe,
  0xd7, 0x73, 0x8f, 0x3e, 0x67, 0x52, 0x8c, 0x3e, 0x98, 0x23, 0x2f, 0x3d,
  0x6c, 0x43, 0xb7, 0xbe, 0x06, 0x22, 0x07, 0xbe, 0xf4, 0x6f, 0x15, 0xbe,
  0x32, 0x85, 0xb8, 0x3e, 0xcc, 0xa5, 0x96, 0xbc, 0xed, 0x71, 0x49, 0xbe,
  0xdc, 0x7d, 0xb3, 0xbe, 0x63, 0xbd, 0x1f, 0x3e, 0x5a, 0x66, 0x9a, 0xbd,
  0x5e, 0x66, 0x80, 0xbe, 0x9a, 0x5a, 0xbf, 0xbd, 0xc1, 0x34, 0x17, 0x3d,
  0x69, 0x7a, 0xcc, 0x3d, 0xd1, 0x1c, 0xc1, 0xbd, 0xe4, 0xde, 0x67, 0x3d,
  0xbf, 0xbf, 0x72, 0xbd, 0xfc, 0x55, 0x0a, 0xbf, 0xe8, 0xca, 0x6c, 0xbe,
  0x33, 0xea, 0x8b, 0x3e, 0xe1, 0xcd, 0x89, 0x3e, 0xe0, 0x80, 0xe7, 0x3d,
  0x98, 0xc0, 0x47, 0x3c, 0xc8, 0x58, 0xd9, 0x3d, 0x28, 0xc1, 0xc9, 0xbd,
  0x6d, 0x1c, 0xc1, 0xbd, 0x0a, 0x11, 0x9c, 0x3e, 0xf5, 0x27, 0x84, 0x3e,
  0xda, 0xfa, 0x29, 0xbf, 0xf4, 0x6e, 0x24, 0xbf, 0xc6, 0x99, 0x9d, 0xbb,
  0x23, 0x57, 0x53, 0xbe, 0xf8, 0xae, 0xac, 0xbe, 0x46, 0x4e, 0x8c, 0xbe,
  0x78, 0xd7, 0x9c, 0xbd, 0x3b, 0x0a, 0xfb, 0xbd, 0xc3, 0xb4, 0x10, 0xbf,
  0x1c, 0x0f, 0x10, 0xbf, 0xee, 0xf3, 0x05, 0xbf, 0x57, 0x5a, 0x0f, 0xbf,
  0x02, 0xf3, 0x34, 0xbe, 0x75, 0x5c, 0x38, 0x3e, 0xf1, 0x19, 0x22, 0x3f,
  0x15, 0x51, 0xeb, 0xbe, 0xbb, 0xa3, 0xfe, 0xbe, 0x98, 0x07, 0x8a, 0x3d,
  0xfe, 0x2e, 0x2f, 0x3e, 0xd7, 0xc6, 0x9f, 0xbd, 0xa6, 0x70, 0x5f, 0xbe,
  0x00, 0x9c, 0xa7, 0x3d, 0x6c, 0x57, 0xbc, 0xbe, 0x4e, 0xc6, 0xa7, 0xbe,
  0xc7, 0x12, 0x00, 0xbe, 0xf0, 0x1f, 0x0e, 0x3e, 0x8a, 0xb4, 0x6a, 0xbc,
  0xe6, 0xbc, 0xe4, 0x3e, 0x8b, 0x9c, 0x59, 0x3e, 0xf7, 0x20, 0x87, 0xbe,
  0x13, 0x60, 0x9b, 0xbb, 0x8f, 0x26, 0xb1, 0x3e, 0xe5, 0x17, 0x82, 0x3e,
  0xa3, 0x45, 0xd5, 0x3e, 0xa4, 0xfc, 0x9b, 0xbd, 0x53, 0xcf, 0xec, 0x3e,
  0xd2, 0x8a, 0xba, 0x3c, 0xd8, 0x51, 0x17, 0xbe, 0x5e, 0x38, 0xc9, 0xbe,
  0x4d, 0x63, 0xba, 0xbe, 0xa7, 0x91, 0xd9, 0x3e, 0xba, 0x9d, 0x6f, 0xbe,
  0xf4, 0x8f, 0xa1, 0x3e, 0x4e, 0x04, 0xcf, 0x3e, 0x9b, 0xa0, 0x1f, 0x3f,
  0xa5, 0x85, 0xd8, 0xbe, 0x06, 0x35, 0x21, 0xbe, 0x36, 0xf1, 0xd8, 0x3e,
  0xcb, 0x4a, 0x84, 0xbe, 0xff, 0x2f, 0x1b, 0xbe, 0xa3, 0xf7, 0x38, 0x3e,
  0xf1, 0x90, 0x3f, 0x3c, 0x34, 0x12, 0x9c, 0xbb, 0x59, 0x93, 0x39, 0x3e,
  0x31, 0xb0, 0x9d, 0x3d, 0x83, 0xe8, 0xb3, 0x3e, 0x81, 0xdf, 0xc2, 0xbc,
  0x9b, 0x87, 0x22, 0x3e, 0x2f, 0xe4, 0x30, 0xbd, 0x45, 0x0c, 0x9d, 0xbe,
  0x28, 0x58, 0x8d, 0x3e, 0x7a, 0x89, 0x94, 0x3e, 0x52, 0x4d, 0xa1, 0xbe,
  0x14, 0x58, 0xf1, 0xbe, 0x25, 0x0c, 0x03, 0xbf, 0xe0, 0xe3, 0xe3, 0x3d,
  0xbb, 0x2a, 0x55, 0xbe, 0xe7, 0x87, 0x36, 0xbf, 0xe2, 0x4a, 0xf4, 0xbe,
  0x3a, 0x0e, 0x0c, 0x3d, 0x6f, 0x01, 0x4c, 0xbf, 0x38, 0x9e, 0x4e, 0xbf,
  0xc8, 0x9f, 0x06, 0xbf, 0xf8, 0xcf, 0xfe, 0x3e, 0x42, 0xfd, 0x14, 0xbd,
  0x99, 0xaa, 0x61, 0x3d, 0x40, 0xa3, 0xb7, 0xbd, 0x83, 0x39, 0x92, 0xbe,
  0xcf, 0x39, 0x0c, 0xbf, 0xd2, 0xe3, 0x70, 0xbe, 0x2f, 0x98, 0x7c, 0xbd,
  0xec, 0xd6, 0x8b, 0x3e, 0xd4, 0xd2, 0x5f, 0xba, 0x07, 0xdc, 0x8f, 0xbe,
  0x07, 0x9f, 0x8e, 0x3e, 0x72, 0x60, 0xac, 0xbe, 0x35, 0x10, 0x0c, 0xbf,
  0x27, 0x7d, 0x30, 0xbe, 0xec, 0x4a, 0x92, 0xbe, 0x2b, 0x40, 0x61, 0x3c,
  0xeb, 0xa2, 0x73, 0x3e, 0x8d, 0xa7, 0xdd, 0x3d, 0x90, 0xdc, 0xe2, 0xbe,
  0xcc, 0x1d, 0xbe, 0x3c, 0xe5, 0x2b, 0xaf, 0xbd, 0x1c, 0xed, 0x70, 0xbe,
  0x9b, 0x80, 0x55, 0x3e, 0x44, 0x25, 0x1c, 0x3f, 0x82, 0x7b, 0x31, 0xbe,
  0x73, 0x95, 0xa9, 0x3e, 0xee, 0x09, 0x5c, 0x3e, 0xd8, 0x0e, 0x8d, 0xbe,
  0x87, 0xf8, 0xb4, 0xbd, 0xa7, 0x4e, 0xae, 0x3c, 0x23, 0x50, 0x99, 0x3e,
  0x34, 0x40, 0x9f, 0x3e, 0x44, 0x7c, 0x24, 0xbe, 0x8e, 0x96, 0xc1, 0x3d,
  0x12, 0xf8, 0x65, 0xbc, 0x10, 0x72, 0x34, 0xbe, 0xf5, 0x35, 0x6b, 0xbf,
  0x93, 0x31, 0x38, 0xbf, 0xa1, 0x4b, 0xd0, 0x3e, 0x0d, 0x16, 0x9f, 0x3e,
  0x58, 0xbe, 0x64, 0x3d, 0x25, 0x6d, 0xf1, 0xbe, 0xca, 0x95, 0x9b, 0x3e,
  0x2e, 0xe8, 0xc2, 0x3e, 0x20, 0xdb, 0x9f, 0xbd, 0xda, 0xae, 0xf8, 0x3e,
  0xf1, 0x11, 0x90, 0xbe, 0xcf, 0xa0, 0xdc, 0x3e, 0xbc, 0x47, 0xc5, 0xbe,
  0x51, 0x0b, 0x03, 0xbd, 0x6f, 0x1b, 0x0d, 0xbf, 0xf8, 0x14, 0x1c, 0xbf,
  0x10, 0x49, 0x87, 0xbe, 0x80, 0x3e, 0xac, 0xbe, 0x7c, 0x44, 0x18, 0xbe,
  0x35, 0xcc, 0xc9, 0x3e, 0x3e, 0xd2, 0x98, 0xbe, 0xcf, 0x99, 0x05, 0xbf,
  0x12, 0xae, 0x13, 0x3e, 0x22, 0x0e, 0x9c, 0x3e, 0x73, 0xb1, 0x95, 0x3f,
  0x51, 0xd7, 0xfb, 0x3c, 0xfc, 0x27, 0x61, 0xbe, 0x91, 0xb6, 0x93, 0x3c,
  0xa0, 0xb8, 0x9f, 0x38, 0x90, 0x8b, 0x67, 0xbe, 0xbb, 0x4d, 0x3a, 0xbf,
  0x11, 0xe1, 0x17, 0xbd, 0x63, 0x13, 0xb7, 0xbe, 0x4d, 0x0d, 0x33, 0xbf,
  0xfb, 0xfe, 0xf1, 0xbe, 0x43, 0x9e, 0x80, 0xbd, 0xbc, 0x08, 0x1c, 0x3e,
  0x0c, 0x57, 0xff, 0x3e, 0x95, 0x7a, 0xc0, 0x3d, 0x73, 0xe3, 0x35, 0xbe,
  0x3a, 0xb8, 0xf8, 0xbe, 0xe9, 0x18, 0x01, 0xbe, 0x35, 0xf2, 0x46, 0xbe,
  0xde, 0x77, 0x8e, 0x3d, 0x8b, 0x9c, 0xeb, 0x3d, 0x13, 0xea, 0x56, 0x3d,
  0x1c, 0x99, 0xa0, 0x3e, 0xbb, 0xef, 0xe5, 0xbe, 0x39, 0x7c, 0x20, 0xbf,
  0x1d, 0x4a, 0x73, 0x3e, 0x3e, 0x87, 0x95, 0xbe, 0xa7, 0xd6, 0xb7, 0xbc,
  0x4b, 0xfe, 0x12, 0x3e, 0x0c, 0xb0, 0x37, 0xbd, 0x44, 0xb5, 0x1b, 0xbf,
  0xf5, 0xe4, 0x91, 0x3e, 0x27, 0x6a, 0xda, 0x3d, 0xc0, 0x12, 0x4f, 0xbf,
  0x4b, 0x81, 0x43, 0x3e, 0xe9, 0x89, 0x1b, 0x3d, 0x7c, 0x66, 0xd8, 0xbe,
  0x92, 0xa0, 0x01, 0xbd, 0x39, 0x64, 0x91, 0x3d, 0x41, 0xca, 0xc9, 0x3e,
  0x35, 0xb0, 0x54, 0x3e, 0xfe, 0xa8, 0x18, 0xbd, 0x6b, 0x98, 0x44, 0xbe,
  0x98, 0x54, 0x88, 0x3d, 0xd7, 0xae, 0x69, 0x3e, 0xc0, 0xdb, 0xe5, 0xbe,
  0x0c, 0xbc, 0xb2, 0x3e, 0x5f, 0x07, 0xdf, 0xbe, 0x63, 0x08, 0x60, 0xbf,
  0xde, 0xe0, 0x84, 0x3e, 0x53, 0x31, 0xce, 0x3d, 0xf0, 0x99, 0x53, 0xbf,
  0x3f, 0x29, 0x44, 0x3e, 0xdc, 0x60, 0xc4, 0xbe, 0x78, 0x27, 0x20, 0xbb,
  0x05, 0x09, 0x20, 0xbf, 0xe4, 0x89, 0xc6, 0x3d, 0xa2, 0xeb, 0xb1, 0xbe,
  0x4c, 0xf7, 0x4d, 0xbe, 0xe0, 0x28, 0x08, 0xbe, 0xf6, 0x49, 0xe0, 0x3d,
  0x12, 0x46, 0x00, 0x3e, 0xb4, 0xb0, 0xbb, 0x3e, 0xc7, 0x01, 0xd1, 0x3e,
  0x94, 0x2f, 0x9f, 0xbe, 0x08, 0x69, 0x8d, 0x3e, 0xd8, 0x7b, 0x9a, 0xbd,
  0x8a, 0xb8, 0xeb, 0x3e, 0x9d, 0x21, 0x84, 0x3d, 0xc2, 0xae, 0xac, 0x3e,
  0x6c, 0x52, 0xef, 0x3d, 0x45, 0x8b, 0xc6, 0xbe, 0x7f, 0x63, 0x41, 0xbe,
  0xc3, 0xed, 0x6e, 0xbe, 0x91, 0x4f, 0xd4, 0x3e, 0x22, 0x84, 0x94, 0x3e,
  0x58, 0x1b, 0xdf, 0x3d, 0xdd, 0x79, 0x53, 0xbe, 0x36, 0xac, 0x32, 0x3f,
  0x2f, 0x75, 0xe6, 0x3e, 0x3e, 0x00, 0xae, 0xbd, 0x14, 0x38, 0x90, 0x3e,
  0x0f, 0x94, 0x1c, 0xbe, 0xbc, 0x43, 0xee, 0x3d, 0xb6, 0x5a, 0xbc, 0xbe,
  0x4d, 0xa7, 0xc2, 0xbd, 0x82, 0x95, 0x7a, 0xbe, 0x2b, 0x81, 0x00, 0xbe,
  0x92, 0xf5, 0xb3, 0xbe, 0xdd, 0x8a, 0x28, 0xbc, 0x43, 0x1e, 0xc8, 0xbd,
  0x07, 0x7e, 0x6b, 0x3e, 0x08, 0x9b, 0x19, 0xbc, 0xaa, 0x8f, 0x80, 0xbe,
  0xee, 0x41, 0x8f, 0x3d, 0xcf, 0x03, 0x06, 0x3f, 0xeb, 0x07, 0x93, 0x3f,
  0x40, 0xe2, 0x63, 0x3d, 0x1f, 0xc2, 0x06, 0x3f, 0xe2, 0x2f, 0x8e, 0xbf,
  0xe9, 0x19, 0xc4, 0x3e, 0x70, 0xba, 0x08, 0x3f, 0x69, 0x73, 0x21, 0x3f,
  0xb6, 0x53, 0x1f, 0xbf, 0x19, 0xae, 0x69, 0x3c, 0x91, 0x0e, 0x92, 0x3d,
  0xe5, 0xc9, 0x2f, 0x3e, 0x0d, 0xe4, 0x74, 0xbe, 0xa2, 0x9e, 0x85, 0x3e,
  0xb7, 0x10, 0x46, 0xbe, 0xd2, 0x67, 0x9f, 0x3e, 0xcb, 0x99, 0x90, 0x3d,
  0x9f, 0x56, 0x6e, 0xbc, 0xea, 0xeb, 0x80, 0x3c, 0x24, 0x47, 0x42, 0x3e,
  0xee, 0x26, 0xb0, 0x3e, 0x35, 0x1d, 0x39, 0xbb, 0x08, 0xac, 0x6f, 0x3e,
  0x55, 0x33, 0x47, 0x3e, 0x48, 0xdc, 0x0c, 0x3e, 0x40, 0x27, 0x0d, 0xbe,
  0x58, 0x1e, 0x16, 0xbe, 0xa5, 0x6e, 0x96, 0x3e, 0x8e, 0x31, 0x3c, 0xbf,
  0x72, 0x8c, 0x81, 0x3e, 0xf8, 0xb1, 0xe1, 0x3e, 0xc7, 0x0a, 0x96, 0x3d,
  0x51, 0x5b, 0x41, 0xbf, 0xd0, 0x4d, 0x7c, 0x3e, 0x38, 0xbf, 0xa9, 0xbd,
  0x90, 0xaa, 0xf0, 0xbd, 0xf0, 0x32, 0xc9, 0xbe, 0x82, 0xb7, 0xb4, 0x3e,
  0x67, 0xd3, 0xb6, 0x3d, 0xc5, 0xef, 0xc2, 0x3d, 0x63, 0x31, 0x27, 0x3e,
  0xe0, 0xc4, 0x5f, 0x3c, 0x68, 0x94, 0x7b, 0xbe, 0xfe, 0xdf, 0xac, 0x3e,
  0xdd, 0x32, 0xc0, 0x3e, 0x50, 0x32, 0x72, 0xbe, 0xf8, 0xd0, 0xae, 0x3e,
  0x78, 0xa4, 0x9f, 0x3e, 0xa0, 0xa9, 0xe4, 0xbe, 0xd8, 0x11, 0xd7, 0xbe,
  0x68, 0x7e, 0x0b, 0xbd, 0x0e, 0x1d, 0x12, 0xbf, 0xd0, 0xf6, 0x74, 0x3b,
  0xc6, 0xef, 0x1e, 0x3d, 0xb4, 0x58, 0xf3, 0x3d, 0xfc, 0xf8, 0xf1, 0xbe,
  0x00, 0x64, 0xd3, 0x3d, 0x9b, 0x07, 0x07, 0xbe, 0x6c, 0xff, 0xcd, 0xbe,
  0x5d, 0x80, 0xe0, 0xbe, 0x8f, 0xc9, 0xf0, 0x3e, 0xb7, 0x37, 0x59, 0xbd,
  0x8a, 0xe3, 0x44, 0xbd, 0x0f, 0x22, 0x71, 0x3e, 0xad, 0x26, 0x5e, 0x3e,
  0xf8, 0x39, 0x7f, 0xbe, 0xac, 0x48, 0x72, 0x3e, 0x8e, 0x08, 0xc5, 0x3e,
  0x6f, 0x34, 0xda, 0x3e, 0x00, 0x36, 0xb1, 0xbd, 0x86, 0x58, 0x8d, 0xbe,
  0x2e, 0x08, 0xa8, 0x3e, 0xd9, 0xd6, 0x53, 0xbe, 0x94, 0x38, 0xf6, 0xbe,
  0x29, 0xbc, 0x1d, 0xbd, 0x4f, 0x72, 0x95, 0x3c, 0xe7, 0x8f, 0xf7, 0xbe,
  0xef, 0x3c, 0x4b, 0x3d, 0xf2, 0xd0, 0xcb, 0xbb, 0xdc, 0x25, 0x9a, 0xbe,
  0x8e, 0xdb, 0x9b, 0xbe, 0xaf, 0xd3, 0x52, 0xbe, 0xec, 0xde, 0x3f, 0xbd,
  0x06, 0x88, 0x55, 0x3e, 0xd8, 0xea, 0xa5, 0x3d, 0x71, 0x52, 0xb9, 0x3e,
  0x63, 0x9a, 0xa7, 0x3d, 0xaa, 0x3c, 0x23, 0x3e, 0xcb, 0x9e, 0xfe, 0x3c,
  0x70, 0x92, 0xa4, 0xbe, 0xe1, 0x7d, 0x04, 0x3d, 0x61, 0x3e, 0xcd, 0xbe,
  0xab, 0xa9, 0xb8, 0x3e, 0x63, 0xaa, 0x96, 0x3e, 0x7b, 0xad, 0x8e, 0xbe,
  0x84, 0xb5, 0x35, 0xbe, 0xa4, 0x72, 0x46, 0xbe, 0x7c, 0x99, 0xca, 0xbd,
  0x76, 0xe0, 0x8a, 0xbe, 0xd7, 0xe3, 0x05, 0xbe, 0x85, 0x6b, 0x50, 0x3c,
  0xe2, 0x40, 0x32, 0xbe, 0xff, 0x74, 0x41, 0xbe, 0xd6, 0x25, 0xae, 0xbe,
  0xe6, 0x8e, 0xd2, 0x3d, 0x33, 0xdc, 0xbc, 0xbe, 0x7f, 0xef, 0xcd, 0xbe,
  0x64, 0xb2, 0x1e, 0xbe, 0x39, 0xbf, 0x09, 0x3e, 0x01, 0x95, 0x09, 0xbe,
  0x22, 0xcf, 0xba, 0xbd, 0x49, 0x5d, 0x85, 0xbe, 0xbe, 0x4c, 0x00, 0xbe,
  0x29, 0x0b, 0x8e, 0xbe, 0x66, 0x1e, 0x9f, 0xbd, 0xbc, 0xf6, 0x7a, 0xbd,
  0xb2, 0x08, 0x82, 0x3e, 0xd2, 0xca, 0x3b, 0xbd, 0x60, 0xc3, 0x3e, 0xbe,
  0x41, 0x6f, 0x4b, 0xbc, 0xc9, 0x25, 0xb8, 0xbd, 0x01, 0x27, 0x19, 0xbf,
  0xb6, 0xe4, 0xff, 0xff, 0x04, 0x00, 0x00, 0x00, 0x00, 0x09, 0x00, 0x00,
  0xaa, 0x6d, 0x8a, 0x3e, 0x7f, 0xe9, 0x18, 0x3e, 0xcb, 0xa4, 0x5f, 0xbe,
  0x6f, 0x47, 0xaf, 0x3d, 0xe3, 0xc4, 0x11, 0xbf, 0xd0, 0x4f, 0xe9, 0x3e,
  0x07, 0x05, 0x72, 0xbd, 0x26, 0xf2, 0xbf, 0xba, 0x15, 0xca, 0xbe, 0xbd,
  0xa1, 0x60, 0x26, 0xbe, 0x49, 0x6c, 0xd8, 0xbe, 0x3b, 0x6c, 0x47, 0x3d,
  0x35, 0x82, 0xe1, 0x3e, 0xa8, 0x1e, 0x43, 0x3e, 0xf0, 0xac, 0x31, 0x3f,
  0x50, 0xc5, 0x9d, 0xbe, 0xc8, 0x0a, 0xd5, 0x3d, 0x21, 0xb4, 0x14, 0x3f,
  0xba, 0x8a, 0x89, 0xbe, 0x50, 0x5c, 0x0d, 0xbe, 0x6a, 0x58, 0x4d, 0x3e,
  0x40, 0x01, 0x20, 0xbd, 0xeb, 0xb2, 0x46, 0xbe, 0xf6, 0x1b, 0x89, 0x3e,
  0xba, 0xb6, 0x9e, 0x3e, 0x29, 0x1d, 0x02, 0xbe, 0x1b, 0xaa, 0xa5, 0x3e,
  0xc6, 0xc7, 0xb0, 0x3e, 0x25, 0x51, 0x2c, 0x3f, 0xb4, 0xd7, 0x56, 0x3e,
  0xc8, 0x5a, 0x49, 0x3e, 0x55, 0x14, 0xa8, 0xbe, 0xb2, 0xb7, 0x2a, 0xbe,
  0x58, 0xd7, 0x12, 0xbf, 0xad, 0x9b, 0x48, 0xbe, 0xda, 0xb4, 0x95, 0xbe,
  0x31, 0xd0, 0xd9, 0x3c, 0x31, 0x17, 0x0d, 0xbf, 0x2b, 0x04, 0x85, 0x3e,
  0x1f, 0x36, 0x1b, 0x3e, 0x1d, 0x55, 0x9b, 0xbd, 0x5c, 0x7d, 0xcd, 0xbd,
  0x7c, 0x37, 0xd8, 0xbe, 0x34, 0x52, 0x42, 0xbe, 0xab, 0x18, 0x6a, 0xbe,
  0xd4, 0xda, 0xd3, 0x3e, 0x4d, 0x9b, 0x76, 0xbd, 0xc7, 0x2e, 0x27, 0xbf,
  0x6e, 0x9a, 0x45, 0x3e, 0xf8, 0xe4, 0xbf, 0xbd, 0x7a, 0x9e, 0x7f, 0xbd,
  0x4a, 0x39, 0x5f, 0xbc, 0x06, 0x9d, 0x65, 0x3e, 0x55, 0xfb, 0x0c, 0x3f,
  0xb3, 0x17, 0x0d, 0xbd, 0x1b, 0x95, 0x9f, 0xbd, 0x1d, 0xf4, 0x22, 0xbc,
  0xa2, 0xbf, 0x38, 0xbe, 0x3b, 0xc3, 0x68, 0xbd, 0xf3, 0x76, 0x22, 0xba,
  0xe3, 0x9c, 0x49, 0xbc, 0x49, 0x43, 0x15, 0xbe, 0x3b, 0xa0, 0x12, 0x3e,
  0xbc, 0xc7, 0x61, 0x3d, 0xf9, 0xb4, 0x02, 0xbe, 0x23, 0x4b, 0x0d, 0x3f,
  0x9e, 0x81, 0x01, 0xbd, 0xa1, 0x06, 0xd4, 0xbc, 0x9b, 0x6d, 0xc3, 0xbc,
  0x8e, 0x39, 0xd7, 0xbd, 0xd9, 0x30, 0x0f, 0xbd, 0x23, 0xda, 0xa7, 0xbd,
  0xbd, 0x9f, 0xa7, 0xbe, 0x46, 0x1b, 0xf5, 0x3e, 0xb9, 0x04, 0x4a, 0x3e,
  0x8b, 0x65, 0x7e, 0x3e, 0xc9, 0x34, 0x70, 0x3e, 0x35, 0x27, 0xe2, 0x3e,
  0x3e, 0x75, 0x06, 0xbf, 0x33, 0x13, 0xd9, 0xbd, 0x53, 0x3f, 0xde, 0x3d,
  0x23, 0x6f, 0xb4, 0xbd, 0x72, 0x62, 0x14, 0xbd, 0x87, 0x7b, 0x8c, 0xbd,
  0x04, 0xbe, 0x74, 0x3e, 0x9c, 0x5c, 0xc1, 0x3e, 0xcf, 0xcb, 0x96, 0xbd,
  0x3a, 0x1d, 0xa8, 0x3e, 0x78, 0x0f, 0x8b, 0xbe, 0xb7, 0x42, 0x2d, 0x3e,
  0xdc, 0x66, 0xf4, 0xbd, 0x4c, 0x98, 0xe7, 0xbe, 0x82, 0xfa, 0x0b, 0x3e,
  0xd1, 0xf4, 0x49, 0x3e, 0x23, 0x67, 0xe2, 0xbe, 0xfb, 0x54, 0xaa, 0xbe,
  0x57, 0x0a, 0x48, 0x3d, 0xe2, 0x49, 0x20, 0x3f, 0x4f, 0xb3, 0xc8, 0x3e,
  0x11, 0x88, 0x84, 0x3d, 0x1d, 0xd7, 0x3b, 0x3f, 0x51, 0x94, 0x5c, 0xbd,
  0x18, 0x11, 0xcb, 0xbe, 0x08, 0x96, 0x62, 0xbd, 0x5d, 0x95, 0xd6, 0xbe,
  0x76, 0xf3, 0xe7, 0xbd, 0x0a, 0x21, 0xc6, 0x3e, 0xc0, 0x12, 0xef, 0x3d,
  0xcb, 0x97, 0x89, 0x3d, 0x26, 0xab, 0x8e, 0x3d, 0x69, 0x54, 0x15, 0x3f,
  0x49, 0x61, 0xa1, 0xbe, 0x76, 0xd8, 0x9b, 0xbd, 0x2b, 0xef, 0x5b, 0x3e,
  0x03, 0x0f, 0xbe, 0xbd, 0x95, 0x46, 0x9d, 0xbd, 0x00, 0x7e, 0x3e, 0xbe,
  0xf8, 0x5a, 0xf1, 0xbe, 0xcf, 0x5b, 0xc0, 0xbe, 0xa4, 0xc8, 0xbd, 0x3e,
  0xa6, 0x0a, 0xa4, 0x3e, 0x1d, 0x57, 0xa8, 0xbe, 0xc0, 0x9b, 0xfd, 0x3e,
  0xef, 0x83, 0x69, 0xbd, 0xd2, 0x39, 0x74, 0x3e, 0x4a, 0x4f, 0x14, 0x3f,
  0x06, 0xb3, 0x28, 0x3e, 0xd5, 0x91, 0x22, 0xbf, 0x42, 0xfc, 0x88, 0xbd,
  0x97, 0xd0, 0x1a, 0xbf, 0x5f, 0x26, 0xf0, 0xbe, 0x42, 0x4d, 0xb0, 0xbe,
  0x04, 0x37, 0xc0, 0xbe, 0x76, 0xc2, 0xbc, 0xbe, 0x20, 0x99, 0x99, 0x3e,
  0x36, 0xfa, 0x0e, 0x3e, 0xe8, 0xe3, 0xe5, 0xbd, 0x7b, 0x1d, 0x3f, 0x3e,
  0x08, 0xeb, 0xbc, 0xbe, 0x8f, 0xb6, 0x79, 0xbe, 0x2e, 0xee, 0xd3, 0xbe,
  0x24, 0xbf, 0x2c, 0x3e, 0x5f, 0xcc, 0xe6, 0x3c, 0xf0, 0x44, 0x97, 0xbe,
  0xe0, 0x16, 0xac, 0xbe, 0x46, 0x3f, 0xb9, 0xbd, 0x00, 0xb6, 0x86, 0x3d,
  0xfa, 0x16, 0xa9, 0xbe, 0xdb, 0x01, 0x80, 0xbe, 0x8e, 0x31, 0x90, 0x3d,
  0xec, 0x34, 0x5b, 0xbe, 0x59, 0x76, 0x2b, 0xbd, 0x90, 0xc4, 0x9a, 0x3c,
  0xe0, 0x26, 0x9d, 0xbe, 0x46, 0x06, 0xa8, 0xbd, 0x17, 0x4f, 0xdc, 0xbc,
  0x6a, 0x63, 0x9a, 0xbe, 0xf4, 0xbd, 0xe0, 0xbe, 0xeb, 0x72, 0x2e, 0xbe,
  0xe8, 0xd9, 0x02, 0x3e, 0xb0, 0x1c, 0x61, 0xbe, 0x22, 0x52, 0x59, 0xbd,
  0xfe, 0x77, 0x13, 0xbb, 0xd1, 0x05, 0xa4, 0xbd, 0x34, 0x8d, 0x1c, 0xbd,
  0xf2, 0x9b, 0x89, 0xbe, 0x8e, 0x48, 0xbf, 0x3c, 0xd2, 0xf3, 0x7f, 0xbe,
  0x74, 0x82, 0xd0, 0x3e, 0x9f, 0x8d, 0x3b, 0x3e, 0x66, 0x8b, 0x9b, 0x3d,
  0xe2, 0x1c, 0x92, 0xbe, 0x79, 0x35, 0x40, 0xbf, 0xa0, 0xbc, 0x76, 0x3f,
  0xc5, 0x30, 0x82, 0x3e, 0x7d, 0x84, 0xbb, 0xbd, 0x86, 0xe1, 0xc4, 0xbd,
  0x0c, 0xcb, 0xa3, 0x3e, 0xe9, 0x91, 0xc2, 0x3d, 0x2f, 0x82, 0x0c, 0xbe,
  0xb1, 0x8d, 0x11, 0x3e, 0xab, 0x57, 0xaf, 0x3e, 0x84, 0x17, 0xb6, 0x3d,
  0x44, 0x13, 0xd3, 0xbe, 0x09, 0x7b, 0x4c, 0x3e, 0x06, 0x56, 0x16, 0x3f,
  0x64, 0xab, 0xd1, 0xbd, 0x19, 0x02, 0xa8, 0xbe, 0x14, 0x90, 0x83, 0x3d,
  0xb5, 0x41, 0xde, 0x3d, 0x8d, 0x9b, 0xde, 0xbd, 0x2f, 0xa9, 0xa6, 0x3e,
  0x19, 0x14, 0x73, 0x3e, 0xf3, 0x2b, 0xba, 0xbd, 0x24, 0x20, 0xf8, 0x3d,
  0x98, 0x0a, 0xb5, 0x3e, 0xb1, 0xe3, 0x2f, 0x3d, 0x2c, 0xe8, 0x00, 0x3f,
  0x09, 0x89, 0x5f, 0x3e, 0x3b, 0xd5, 0x30, 0xbf, 0xc8, 0x3b, 0x09, 0xbf,
  0x5b, 0x5f, 0x91, 0xbe, 0xc1, 0xa8, 0x73, 0xbd, 0x28, 0xa5, 0x2f, 0xbe,
  0xfc, 0x83, 0x99, 0xbd, 0x1b, 0xad, 0x04, 0x3d, 0xe3, 0x9c, 0x78, 0xbd,
  0xad, 0x93, 0xcb, 0xbe, 0x3c, 0x45, 0xa8, 0x3c, 0x0e, 0xae, 0x98, 0x3e,
  0x61, 0xa9, 0x2f, 0xbf, 0xcf, 0x91, 0x0e, 0xbf, 0xc4, 0x8e, 0x8a, 0xbe,
  0x96, 0xd0, 0x19, 0x3e, 0x97, 0xc0, 0x0c, 0xbd, 0x3b, 0x97, 0x17, 0xbf,
  0x05, 0x4e, 0xf7, 0xbe, 0x8f, 0xc8, 0x0f, 0x3e, 0x2b, 0x8e, 0xf6, 0x3e,
  0xbf, 0xb8, 0x98, 0x3e, 0x2b, 0x89, 0x50, 0xbe, 0x20, 0x30, 0xaf, 0xbe,
  0x7d, 0x3f, 0x7b, 0x3d, 0xa3, 0x14, 0x31, 0x3e, 0x83, 0x8a, 0xa5, 0x3d,
  0x1a, 0xe2, 0x83, 0x3e, 0x5b, 0xab, 0x31, 0xbe, 0xe1, 0xca, 0x43, 0x3e,
  0xbb, 0x77, 0x9b, 0x3e, 0x4f, 0x0a, 0x34, 0x3e, 0x46, 0x90, 0x2b, 0xbe,
  0x3e, 0x4c, 0xf2, 0xbc, 0x4f, 0xe8, 0x70, 0xbe, 0x4f, 0x45, 0x32, 0xbe,
  0xf7, 0xd7, 0x8d, 0x3d, 0x63, 0x0a, 0x78, 0x3e, 0x35, 0xd0, 0x21, 0x3e,
  0x7d, 0x4e, 0xb0, 0xbd, 0xfa, 0x9b, 0xd6, 0xbe, 0xd6, 0x93, 0x5a, 0x3e,
  0x92, 0x6d, 0x9b, 0xbe, 0x4b, 0x8d, 0x1e, 0xbe, 0x46, 0xe2, 0xa8, 0xbd,
  0xe5, 0x93, 0xb4, 0xbe, 0xc8, 0x85, 0x4a, 0xbe, 0x00, 0x74, 0x09, 0xbf,
  0xe1, 0x08, 0x19, 0xbf, 0x06, 0xf0, 0x12, 0x3d, 0x6a, 0xbf, 0xbe, 0x3c,
  0x89, 0xa3, 0x1b, 0xbf, 0x40, 0x1a, 0xee, 0xbd, 0x97, 0xa1, 0x4b, 0x3e,
  0x00, 0xab, 0xba, 0xbd, 0xc3, 0xf5, 0x09, 0xbf, 0xf7, 0x9b, 0xaa, 0x3b,
  0x84, 0x7c, 0x77, 0xbf, 0x59, 0x5f, 0xc6, 0xbd, 0x43, 0x97, 0xa2, 0xbe,
  0xb8, 0xc7, 0xb0, 0x3d, 0x50, 0x19, 0x30, 0xbf, 0xcf, 0x3a, 0x33, 0xbd,
  0xb4, 0x7a, 0x0a, 0xbf, 0x27, 0x9e, 0xe2, 0x3d, 0xf5, 0x8b, 0x7b, 0xbe,
  0x66, 0x44, 0x0c, 0x3e, 0xb1, 0x43, 0x9c, 0xbd, 0xf5, 0xd4, 0x37, 0xbc,
  0x1d, 0xd7, 0x2c, 0x3e, 0x54, 0xe2, 0xb9, 0xbd, 0xa1, 0x6b, 0x60, 0xbe,
  0xcb, 0xbf, 0x4f, 0xbb, 0xbf, 0xc1, 0x04, 0xbe, 0x95, 0xe0, 0x0e, 0x3f,
  0xec, 0x40, 0x1b, 0x3e, 0xa6, 0x75, 0xd8, 0x3d, 0x98, 0x4a, 0xd5, 0xbd,
  0x48, 0xb0, 0x34, 0xbe, 0xba, 0xfa, 0x28, 0x3e, 0xba, 0x4e, 0x82, 0xbd,
  0x96, 0xad, 0x7a, 0xbe, 0xb9, 0x28, 0xf9, 0xbd, 0x63, 0x22, 0xac, 0xbe,
  0x78, 0xc9, 0x1b, 0xbe, 0xc8, 0x52, 0x88, 0x3d, 0x79, 0xce, 0xae, 0xbd,
  0x5c, 0xc9, 0x09, 0xbf, 0x9f, 0x8b, 0x51, 0xbe, 0x4e, 0xf5, 0x35, 0xbc,
  0x27, 0xda, 0x92, 0xbe, 0x37, 0xbb, 0x2a, 0x3e, 0x0c, 0x93, 0x94, 0xbe,
  0xb2, 0x82, 0x3b, 0xbe, 0x97, 0x7d, 0xc5, 0xbe, 0x3c, 0x04, 0xef, 0xbd,
  0x27, 0x4e, 0x39, 0xbe, 0x62, 0x2c, 0xaf, 0x3c, 0x34, 0xd2, 0x76, 0x3d,
  0xa1, 0xcc, 0x3e, 0x3e, 0x6a, 0x35, 0x19, 0x3e, 0x59, 0x6a, 0x8c, 0xbd,
  0x30, 0x16, 0x6d, 0xbe, 0x1f, 0x47, 0x2e, 0xbf, 0x1f, 0xcd, 0x79, 0xbe,
  0xcd, 0xc6, 0xd4, 0x3e, 0x76, 0x04, 0x12, 0xbe, 0x88, 0x69, 0x5e, 0xbe,
  0xf6, 0x82, 0xe1, 0x3c, 0x49, 0x5b, 0xab, 0x3c, 0x37, 0x1a, 0x27, 0x3e,
  0xf9, 0xda, 0xa6, 0xbe, 0xca, 0x30, 0xd1, 0x3d, 0xa8, 0x83, 0x97, 0x3d,
  0x7e, 0xf2, 0xd6, 0xbe, 0x93, 0x73, 0x42, 0x3e, 0xdd, 0x47, 0xa6, 0x3d,
  0x69, 0xda, 0xb5, 0x3d, 0xb7, 0x45, 0x86, 0xbc, 0x55, 0x82, 0x69, 0xbd,
  0x04, 0xa3, 0x6c, 0xbe, 0x71, 0xe6, 0x9e, 0x3e, 0x5e, 0xdc, 0xe6, 0x3e,
  0xe5, 0x1e, 0x15, 0xbd, 0xa6, 0x8b, 0x2f, 0x3e, 0xf1, 0x4b, 0x2e, 0x3e,
  0x59, 0x89, 0x9a, 0x3e, 0x43, 0xe8, 0x7a, 0xbe, 0x6b, 0xab, 0x13, 0x3d,
  0x0b, 0x7d, 0x13, 0x3e, 0x49, 0x8b, 0xd4, 0xbd, 0xf8, 0xcd, 0x58, 0xbd,
  0x01, 0x9f, 0xc3, 0xbe, 0x72, 0xc2, 0xc4, 0xbd, 0x96, 0x6d, 0x8c, 0xbe,
  0x1f, 0xc5, 0xcd, 0x3d, 0x87, 0x59, 0xcf, 0x3d, 0x2c, 0x92, 0xd7, 0x3c,
  0x86, 0x7f, 0xf7, 0xbe, 0x10, 0x45, 0x61, 0x3e, 0x6a, 0xbf, 0x32, 0x3d,
  0xc6, 0x44, 0x77, 0xbc, 0x08, 0xfa, 0x12, 0xbd, 0xcb, 0x7e, 0x05, 0xbd,
  0x5c, 0xda, 0x3a, 0xbf, 0xfd, 0xdb, 0xa3, 0xbe, 0x35, 0xd1, 0xb4, 0xbd,
  0x09, 0xbb, 0xe2, 0xbd, 0xfe, 0x31, 0xae, 0x3e, 0x78, 0xa1, 0x5c, 0x3e,
  0xd6, 0x30, 0x85, 0xbd, 0x7c, 0xfa, 0x97, 0x3e, 0xe9, 0x08, 0x21, 0xbe,
  0xd1, 0xa0, 0xef, 0xbd, 0x17, 0xd2, 0x3c, 0x3e, 0x2a, 0xf2, 0x04, 0xbd,
  0x02, 0x49, 0x92, 0xbd, 0x78, 0x35, 0x5a, 0xbb, 0xb2, 0x68, 0x8c, 0x3d,
  0x08, 0x34, 0x45, 0x3e, 0x4b, 0x62, 0x10, 0xbf, 0xc4, 0x84, 0xb9, 0x3e,
  0x29, 0x5f, 0x9e, 0xbe, 0x0f, 0x47, 0xf4, 0xbc, 0x49, 0x40, 0x81, 0xbe,
  0x65, 0x7b, 0x10, 0x3d, 0xb0, 0xe5, 0x06, 0x3f, 0x0c, 0x47, 0xeb, 0xbe,
  0x72, 0x08, 0xad, 0x3d, 0x1a, 0xa0, 0x91, 0x3e, 0x5a, 0x0d, 0x23, 0xbe,
  0x06, 0x73, 0x01, 0x3e, 0xa3, 0xee, 0xd5, 0x3d, 0x91, 0x8f, 0x3d, 0xbe,
  0x95, 0x48, 0x03, 0x3e, 0x63, 0x04, 0x8c, 0x3d, 0x67, 0xd3, 0xaf, 0xbc,
  0x00, 0x76, 0x6f, 0xbe, 0x87, 0xf0, 0x01, 0x3f, 0x76, 0xa8, 0x87, 0xbe,
  0x44, 0x90, 0xa0, 0x3c, 0xfc, 0x75, 0x27, 0x3e, 0x4a, 0x04, 0xc3, 0x3c,
  0x3f, 0x17, 0xbb, 0xbc, 0x19, 0xad, 0xde, 0x3d, 0x72, 0xa0, 0xa8, 0xbe,
  0xc2, 0x65, 0xb3, 0xbe, 0x86, 0xde, 0xb6, 0x3e, 0x57, 0x3d, 0x15, 0x3f,
  0x32, 0xd3, 0xaf, 0x3d, 0xfa, 0x5f, 0x07, 0xbd, 0x38, 0x21, 0x28, 0xbe,
  0x7b, 0xea, 0xb2, 0xbe, 0xd0, 0x21, 0xc9, 0x3d, 0xfd, 0x40, 0xc8, 0x3d,
  0xd7, 0x7d, 0x11, 0xbd, 0xfc, 0x60, 0x8f, 0x3e, 0xe4, 0x5d, 0x69, 0xbe,
  0x16, 0xcc, 0x0b, 0x3e, 0xc2, 0x3d, 0xe9, 0xbe, 0x73, 0x6a, 0xf1, 0xbd,
  0x94, 0x07, 0x31, 0x3d, 0xe5, 0xcc, 0x82, 0x3d, 0x31, 0x08, 0xa1, 0xbb,
  0x4a, 0x37, 0x2e, 0x3e, 0xe1, 0xb5, 0x8b, 0xbd, 0x28, 0x71, 0x2e, 0xbd,
  0x1f, 0x7a, 0x93, 0x3e, 0x2b, 0x70, 0xe8, 0x3d, 0xe3, 0x9a, 0xa7, 0x3e,
  0x67, 0x9a, 0x0a, 0xbf, 0xf9, 0x4f, 0x3a, 0x3f, 0x01, 0x97, 0x7e, 0xbe,
  0x82, 0x3d, 0xa3, 0xbe, 0x39, 0x73, 0x9a, 0xbd, 0x7b, 0x5d, 0xb8, 0xbd,
  0x77, 0x03, 0x9b, 0xbd, 0xa4, 0x45, 0x05, 0x3d, 0x86, 0xe2, 0x8b, 0x3d,
  0x02, 0xe6, 0x68, 0xbc, 0x9d, 0x4e, 0xfb, 0xbd, 0x07, 0x16, 0x99, 0x3e,
  0xfe, 0x66, 0xda, 0x3c, 0x1c, 0x6b, 0x29, 0x3c, 0x8c, 0x01, 0x3c, 0x3d,
  0xf2, 0x3c, 0x98, 0x3e, 0x6c, 0x99, 0x9f, 0x3d, 0x22, 0x68, 0xa4, 0x3b,
  0x38, 0xc8, 0x37, 0x3e, 0xb2, 0x55, 0x4b, 0xbe, 0x1b, 0x99, 0x8b, 0x3e,
  0xca, 0xa4, 0x60, 0x3e, 0x40, 0x0b, 0xcc, 0x3d, 0xa1, 0x48, 0x2d, 0x3c,
  0xc8, 0xb9, 0xb2, 0xbe, 0x21, 0xe4, 0x43, 0x3d, 0x0f, 0x61, 0x36, 0xbf,
  0xa5, 0xf3, 0x21, 0x3d, 0x05, 0xfa, 0xad, 0xbe, 0xee, 0xff, 0x1b, 0xbd,
  0x6d, 0x99, 0xd8, 0x3d, 0x1b, 0x7a, 0x4a, 0x3d, 0xe6, 0xcd, 0xc2, 0xbe,
  0xf3, 0x25, 0x2c, 0x3e, 0x06, 0xb9, 0xad, 0xbd, 0x59, 0x13, 0xef, 0xbe,
  0x40, 0x32, 0x39, 0x3b, 0x0c, 0x48, 0x4a, 0xbe, 0x05, 0xd3, 0x3b, 0xbf,
  0x40, 0x8c, 0x47, 0x3e, 0xa9, 0x3e, 0x5f, 0xbe, 0x5f, 0x2b, 0xb8, 0xbe,
  0x68, 0x2e, 0x55, 0xbe, 0x98, 0xe4, 0x88, 0x3e, 0x8d, 0xfa, 0x67, 0x3d,
  0x25, 0x67, 0x1b, 0xbf, 0x60, 0x02, 0x50, 0xbe, 0xdb, 0x5b, 0xbb, 0xbe,
  0x0d, 0xa2, 0xb2, 0xbd, 0x61, 0x03, 0x87, 0x3e, 0x34, 0xa6, 0x60, 0x3e,
  0xc5, 0x9e, 0x74, 0xbe, 0x59, 0xec, 0x2b, 0xbd, 0xb8, 0xaa, 0x83, 0xbd,
  0xb4, 0x0f, 0x5b, 0xbe, 0x49, 0x57, 0x22, 0x3c, 0xe9, 0xaa, 0x21, 0xbe,
  0x68, 0xee, 0xd5, 0x3d, 0xcd, 0x78, 0x34, 0xbe, 0x2d, 0x8c, 0x51, 0x3e,
  0x27, 0x8c, 0x74, 0x3c, 0x7f, 0xa2, 0x94, 0xbd, 0x00, 0xdb, 0xe9, 0xbe,
  0xff, 0x3f, 0x97, 0x3d, 0x0e, 0xea, 0xaa, 0xbd, 0xbc, 0xc3, 0xa5, 0xbd,
  0x5b, 0xe4, 0xff, 0x3e, 0x81, 0xfc, 0x93, 0x3e, 0x51, 0xcf, 0x2b, 0x3e,
  0xca, 0xb5, 0x33, 0xbe, 0x58, 0x7a, 0xbe, 0xbc, 0xac, 0xe7, 0xc6, 0x3e,
  0xff, 0x4d, 0x02, 0xbd, 0x5b, 0xbf, 0x1c, 0x3f, 0xa6, 0x72, 0x93, 0x3e,
  0x22, 0x3a, 0xa8, 0x3c, 0x34, 0x10, 0x37, 0xbc, 0xd6, 0xc6, 0x4d, 0xba,
  0xfd, 0xee, 0x8e, 0xbe, 0x41, 0xe0, 0x21, 0xbd, 0xa7, 0xe6, 0x54, 0x3e,
  0xf7, 0x73, 0x1c, 0x3e, 0x47, 0x5b, 0xa0, 0xbe, 0xf1, 0x0c, 0x4e, 0xbc,
  0x70, 0x57, 0x9d, 0x3e, 0x66, 0x68, 0xb8, 0x3e, 0x47, 0x8e, 0xcc, 0x3c,
  0xb2, 0xe1, 0xe3, 0xbd, 0xbc, 0x44, 0x34, 0x3e, 0xb9, 0x9a, 0x1e, 0x3d,
  0x1f, 0x85, 0xd9, 0x3e, 0x15, 0xc9, 0xa6, 0x3e, 0x32, 0xd6, 0x78, 0xbe,
  0x10, 0xa5, 0x09, 0x3f, 0x73, 0xf3, 0x25, 0xbe, 0x68, 0x14, 0x93, 0xbd,
  0x60, 0xbb, 0x7d, 0xbd, 0xb7, 0x58, 0x96, 0x3d, 0xc7, 0x55, 0x3a, 0xbe,
  0x40, 0xe2, 0xbb, 0xbe, 0x9b, 0x51, 0x10, 0xbf, 0xe6, 0x64, 0x36, 0xbf,
  0xed, 0xcf, 0xc6, 0xbe, 0x90, 0x8f, 0x24, 0xbd, 0x3b, 0x2e, 0x1d, 0x3c,
  0x36, 0x44, 0x08, 0x3e, 0xb8, 0x61, 0xec, 0x3d, 0x66, 0x65, 0xcf, 0xbe,
  0x0b, 0x79, 0x3b, 0xbe, 0xbf, 0x31, 0x00, 0xbf, 0x31, 0xcd, 0x48, 0xbf,
  0xb2, 0x11, 0x9e, 0x3e, 0x33, 0x89, 0x0c, 0xbe, 0x9e, 0x71, 0x1b, 0xbf,
  0x8d, 0x11, 0x82, 0x3e, 0x7c, 0xe9, 0x49, 0x3e, 0xfd, 0xf3, 0x82, 0xbd,
  0xcd, 0x8f, 0x88, 0xbe, 0x7d, 0x2b, 0xf0, 0x3d, 0x31, 0x17, 0x27, 0xbe,
  0xc1, 0x66, 0x22, 0x3f, 0xe3, 0x37, 0x71, 0xbd, 0x25, 0xa4, 0xc1, 0x3e,
  0x0e, 0x91, 0x6a, 0x3d, 0x30, 0xc4, 0x83, 0x3e, 0x9e, 0xcb, 0x87, 0x3f,
  0xaf, 0x5d, 0x8e, 0x3d, 0xee, 0xd2, 0xa3, 0xbe, 0x28, 0x1e, 0x45, 0xbe,
  0x06, 0xa5, 0x06, 0xbf, 0x69, 0x9d, 0x18, 0xbe, 0x75, 0xc1, 0x5d, 0xbe,
  0xf1, 0x08, 0xd1, 0xbe, 0xc4, 0xab, 0x24, 0x3e, 0x0c, 0x91, 0x6c, 0x3e,
  0x8a, 0xe2, 0x08, 0xbe, 0xa9, 0x70, 0xa0, 0x3d, 0xad, 0xe2, 0xd6, 0x3e,
  0x01, 0x4e, 0x81, 0xbe, 0x53, 0x22, 0xa8, 0xbe, 0xc7, 0x23, 0x50, 0xbe,
  0xc6, 0x1c, 0x91, 0x3d, 0xe6, 0xf6, 0xce, 0x3d, 0x00, 0x28, 0xe3, 0xbe,
  0x90, 0xa5, 0xdc, 0x3d, 0xf0, 0x47, 0xa4, 0x3c, 0x1a, 0x6b, 0x47, 0x3e,
  0x09, 0xf4, 0x1a, 0x3e, 0x5c, 0xcd, 0x32, 0x3e, 0xb0, 0xaf, 0x18, 0x3f,
  0x35, 0xb0, 0x1a, 0x3e, 0x1c, 0x78, 0x86, 0xbf, 0xa1, 0x0f, 0xaf, 0xbe,
  0xca, 0xb2, 0x4c, 0xbf, 0x60, 0xaa, 0x0b, 0xbf, 0x80, 0x23, 0x56, 0xbe,
  0xd3, 0xa7, 0x8b, 0xbe, 0x41, 0xa4, 0xee, 0xbd, 0x7b, 0x96, 0xac, 0x3e,
  0x51, 0xae, 0x67, 0xbd, 0x31, 0xff, 0xb0, 0xbc, 0xb2, 0xab, 0xcb, 0x3e,
  0xf6, 0xd8, 0x46, 0xbf, 0x58, 0xa4, 0xe4, 0xbe, 0xc1, 0x8a, 0x8e, 0xbf,
  0x0e, 0x3a, 0x6f, 0x3e, 0x2c, 0x3a, 0xcd, 0xbd, 0x83, 0x26, 0x33, 0xbf,
  0xc2, 0xed, 0xff, 0xff, 0x04, 0x00, 0x00, 0x00, 0x00, 0x09, 0x00, 0x00,
  0x90, 0x41, 0xe5, 0xbe, 0x17, 0x1c, 0xf2, 0xbe, 0x20, 0x47, 0x7a, 0xbe,
  0x17, 0x3a, 0x83, 0xbe, 0xb8, 0xc3, 0x87, 0xbe, 0x45, 0xef, 0x85, 0xbe,
  0x64, 0x38, 0x3e, 0x3e, 0xa9, 0xa7, 0x3f, 0xbe, 0x23, 0x04, 0xec, 0xbe,
  0x60, 0xff, 0x81, 0x3d, 0xe4, 0x5a, 0xba, 0xbd, 0xba, 0xd6, 0xb4, 0xbe,
  0x06, 0xdd, 0x0d, 0x3c, 0x43, 0x9d, 0xdf, 0xbe, 0x25, 0x7d, 0xb5, 0xbe,
  0xdf, 0x91, 0x20, 0xbf, 0xc6, 0x18, 0x03, 0x3e, 0x3d, 0xdf, 0x7b, 0xbe,
  0xf3, 0x20, 0x70, 0xbe, 0x19, 0x04, 0x09, 0xbf, 0x40, 0x8b, 0xdc, 0xbe,
  0x18, 0x9d, 0x3e, 0x3e, 0xb8, 0xd8, 0xd8, 0xbe, 0x1f, 0xd9, 0x6f, 0xbe,
  0x79, 0x11, 0xc6, 0x3d, 0x3b, 0xfd, 0xb0, 0xbd, 0xf6, 0x96, 0x1a, 0xbe,
  0x71, 0xf7, 0xe1, 0xbd, 0x01, 0x19, 0xc1, 0x3c, 0x84, 0xd1, 0x39, 0x3e,
  0xed, 0x87, 0x13, 0x3e, 0x3d, 0xc1, 0x02, 0x3e, 0x6e, 0xfd, 0x9a, 0x3e,
  0x1a, 0x10, 0xe2, 0x3d, 0xd0, 0x86, 0x37, 0xbe, 0xdf, 0x4d, 0x8b, 0xbc,
  0x86, 0x53, 0x20, 0xbc, 0xd7, 0x90, 0xcc, 0x3e, 0x49, 0x02, 0x81, 0xbe,
  0x1d, 0x07, 0xcd, 0xbd, 0xfd, 0x6b, 0x62, 0xba, 0xe8, 0xb7, 0x95, 0xbe,
  0x51, 0x5a, 0x82, 0xbd, 0x12, 0xb1, 0xed, 0xbd, 0x5f, 0xa2, 0xf3, 0xbe,
  0x53, 0x29, 0x5a, 0x3e, 0x69, 0x0b, 0xd4, 0xbe, 0xdd, 0x1c, 0x32, 0xbf,
  0xbf, 0xf3, 0xfb, 0x3a, 0x37, 0xe6, 0x8f, 0xbe, 0x5c, 0x5a, 0x98, 0x3d,
  0x1a, 0xbd, 0x2a, 0xbf, 0x1a, 0x9e, 0xb3, 0x3e, 0x92, 0x0c, 0x20, 0xbe,
  0xeb, 0x5c, 0x50, 0xbf, 0x6f, 0x2d, 0x35, 0x3d, 0x18, 0xcb, 0x20, 0xbd,
  0x66, 0x08, 0x90, 0xbd, 0x59, 0xad, 0x4c, 0x3e, 0x8a, 0x55, 0x98, 0xbe,
  0x50, 0x5b, 0x4c, 0x3c, 0xcc, 0x3b, 0x04, 0x3e, 0x15, 0x9f, 0xcc, 0x3d,
  0x1d, 0x9e, 0x0c, 0xbf, 0x2a, 0xfb, 0x20, 0xbc, 0x97, 0xb1, 0x47, 0xbe,
  0x7c, 0x3c, 0x30, 0xbe, 0x51, 0x9f, 0x1b, 0xbe, 0x6f, 0x14, 0x08, 0x3e,
  0xab, 0x5e, 0x8e, 0x3d, 0x9b, 0xcf, 0x07, 0x3e, 0xd4, 0x59, 0x3b, 0x3e,
  0xd6, 0xb6, 0x52, 0xbd, 0x14, 0x46, 0x05, 0x3e, 0xb2, 0xd3, 0x12, 0xbf,
  0xe6, 0x92, 0x8e, 0x3e, 0xae, 0x79, 0xab, 0x3e, 0xb5, 0xd6, 0x8a, 0x3d,
  0x1e, 0xbe, 0xf8, 0xba, 0x15, 0xdc, 0xb1, 0x3d, 0xea, 0xb8, 0xa7, 0xbd,
  0xab, 0x26, 0x96, 0xbe, 0xbb, 0xdd, 0xc5, 0xbe, 0xcc, 0x4f, 0xaf, 0xbb,
  0xdf, 0x6a, 0x98, 0xbe, 0x09, 0x11, 0x3d, 0x3e, 0x59, 0x46, 0x27, 0xbd,
  0x92, 0x1c, 0xc2, 0xbe, 0xc0, 0xd5, 0x5b, 0x3e, 0x79, 0x61, 0x76, 0xbe,
  0xe1, 0xf1, 0x11, 0xbd, 0xfc, 0x90, 0xb3, 0x3e, 0x16, 0xf2, 0x75, 0x3e,
  0x5c, 0x03, 0x13, 0xbf, 0x87, 0x24, 0x1b, 0x3e, 0xcd, 0x53, 0xe1, 0xbe,
  0xa7, 0x7c, 0xd9, 0xbe, 0xe0, 0x53, 0x8c, 0xbe, 0x96, 0xad, 0x8f, 0xbe,
  0x30, 0x3a, 0xd8, 0xbd, 0x16, 0xd8, 0x0a, 0xbf, 0x9a, 0x62, 0xbf, 0xbe,
  0xb1, 0x45, 0x0d, 0xbd, 0x61, 0x08, 0x6f, 0x3d, 0x16, 0x19, 0xde, 0xbe,
  0x74, 0x73, 0xf4, 0xbd, 0xab, 0xfc, 0x14, 0xbf, 0xd8, 0xc8, 0xdd, 0xbc,
  0xcf, 0x8a, 0xd2, 0x3c, 0x6d, 0x33, 0x2c, 0xbf, 0x22, 0xd3, 0x17, 0xbc,
  0xd5, 0x6d, 0xeb, 0x3e, 0xcf, 0x37, 0x6c, 0x3e, 0xe9, 0x40, 0x03, 0xbf,
  0xfc, 0xeb, 0xf0, 0xbe, 0xd0, 0xb5, 0xdb, 0xbe, 0x2d, 0x02, 0x1a, 0xbf,
  0xfb, 0x46, 0x0a, 0xbf, 0x4f, 0xa2, 0xf4, 0xbe, 0x7e, 0x4b, 0x19, 0xbf,
  0x03, 0x3e, 0x95, 0xbe, 0xc7, 0xb3, 0xe0, 0xbe, 0xc9, 0x03, 0x34, 0xbf,
  0xd7, 0x31, 0x8e, 0x3d, 0x09, 0x62, 0x22, 0xbf, 0x63, 0xea, 0x24, 0xbf,
  0xbb, 0xfc, 0x85, 0x3d, 0xc8, 0xbb, 0xc4, 0x3d, 0x04, 0x0d, 0xf2, 0xbe,
  0x73, 0x85, 0x43, 0x3b, 0x64, 0xe6, 0x23, 0xbf, 0xb2, 0x44, 0xa7, 0xbd,
  0xae, 0x65, 0x5a, 0x3d, 0xa0, 0x8c, 0xa3, 0xbe, 0xdc, 0xf4, 0x8d, 0x3c,
  0x89, 0xa3, 0xa6, 0xbd, 0x8a, 0x5b, 0xbb, 0x3d, 0x08, 0xe2, 0xe5, 0xbe,
  0x95, 0x27, 0x04, 0xbf, 0x61, 0xf2, 0x87, 0xbe, 0xfc, 0x80, 0xf2, 0xbe,
  0x1a, 0x86, 0x27, 0xbf, 0xab, 0x7c, 0x2e, 0xbf, 0xd8, 0x46, 0x08, 0xbf,
  0xad, 0xca, 0xe8, 0xbe, 0xc6, 0xf6, 0x9b, 0xbe, 0xbb, 0xd9, 0xcc, 0x3d,
  0x00, 0x65, 0x03, 0x3e, 0x7a, 0x85, 0x92, 0xbe, 0x64, 0x87, 0x70, 0xbd,
  0x8f, 0x02, 0x56, 0x3e, 0xa3, 0x33, 0xb3, 0x3c, 0xa7, 0x34, 0x19, 0xbf,
  0x0d, 0x73, 0x13, 0xbe, 0x27, 0x61, 0x65, 0x3c, 0x3f, 0x88, 0x7f, 0xbe,
  0x6d, 0x5c, 0xa3, 0xbf, 0x63, 0x11, 0x0e, 0xbf, 0xe1, 0xb0, 0x4a, 0x3e,
  0xd7, 0xc4, 0x2a, 0x3c, 0x5f, 0x6c, 0x01, 0x3e, 0xe7, 0xfd, 0x6a, 0xbe,
  0x0f, 0xc7, 0x21, 0xbe, 0x59, 0x6e, 0xd1, 0xbe, 0xab, 0xcf, 0xdd, 0xb8,
  0xf1, 0x76, 0x57, 0xbc, 0xba, 0x78, 0x59, 0xbd, 0xcb, 0x6e, 0x28, 0xbe,
  0xa9, 0x84, 0x97, 0x3d, 0x5a, 0xa0, 0x4e, 0x3e, 0xbd, 0x62, 0x66, 0x3d,
  0xd5, 0xfb, 0xda, 0x3d, 0xd7, 0xaf, 0x8b, 0x3d, 0x9b, 0xd3, 0x13, 0x3e,
  0xbf, 0x03, 0xe5, 0x3d, 0xa4, 0x94, 0xd4, 0xbd, 0x2b, 0xc7, 0xe5, 0x3e,
  0x6f, 0x81, 0x28, 0xbe, 0x9d, 0x46, 0xbe, 0x3e, 0x87, 0x3d, 0x30, 0xbe,
  0x84, 0x8f, 0x90, 0xbc, 0x97, 0xff, 0x18, 0x3e, 0xb5, 0x2d, 0x8d, 0xbd,
  0x3e, 0x70, 0x3e, 0x3d, 0xff, 0x02, 0xa7, 0xbb, 0xea, 0x3a, 0xc0, 0x3c,
  0x9f, 0xf5, 0xd0, 0x3e, 0x9a, 0x32, 0x0d, 0xbe, 0x9b, 0x58, 0x73, 0xbb,
  0x61, 0x0c, 0xdf, 0xbd, 0x7b, 0x2b, 0x3a, 0x3f, 0xb6, 0x88, 0x95, 0x3e,
  0x75, 0xab, 0x2e, 0x3e, 0x7f, 0x95, 0xa7, 0x3b, 0xc7, 0x5b, 0x17, 0x3d,
  0xcc, 0x92, 0x87, 0xbc, 0x19, 0xc7, 0x0c, 0xbe, 0x00, 0xb8, 0xe3, 0x3e,
  0xc4, 0x56, 0x8e, 0xbe, 0xa6, 0x3f, 0x4f, 0x3e, 0xba, 0x60, 0xaa, 0x3e,
  0x73, 0x03, 0x87, 0x3e, 0x79, 0x30, 0xb3, 0x3e, 0x4b, 0x7c, 0xac, 0x3d,
  0x01, 0xd0, 0x14, 0x3d, 0xec, 0xf7, 0x3b, 0xbd, 0x0b, 0x33, 0xf1, 0x3d,
  0xd7, 0x4a, 0x6f, 0xbd, 0x6b, 0x56, 0xc7, 0xbc, 0x1f, 0xef, 0xe8, 0x3c,
  0x3c, 0xfa, 0x4f, 0xbe, 0x36, 0x48, 0xd6, 0x3d, 0xe8, 0xcb, 0xe2, 0x3e,
  0xc2, 0xd3, 0x2f, 0x3d, 0xcf, 0xbf, 0x3c, 0xbe, 0x67, 0xa6, 0x8b, 0x3d,
  0x68, 0xe3, 0xa2, 0x3e, 0x71, 0x08, 0xd6, 0x3d, 0x20, 0x72, 0xa0, 0xbd,
  0x7a, 0x80, 0x65, 0xbe, 0xf2, 0x3a, 0x2d, 0xbe, 0xa8, 0x4d, 0x88, 0x3d,
  0x6a, 0x0e, 0xa1, 0x3c, 0x75, 0x0a, 0xc7, 0xbe, 0x94, 0x9c, 0x28, 0xbe,
  0x7e, 0x70, 0x11, 0xbe, 0x8c, 0xf8, 0xc7, 0x3d, 0x24, 0x9a, 0xc3, 0x3e,
  0x7b, 0x7b, 0x80, 0xbd, 0xe3, 0x75, 0xa4, 0x3d, 0xd3, 0xfd, 0xdd, 0xbe,
  0x3a, 0x9f, 0x70, 0xbc, 0x00, 0x15, 0x02, 0xbe, 0xee, 0x52, 0x80, 0x3d,
  0xd0, 0x8b, 0x7b, 0x3e, 0xec, 0xe4, 0x14, 0x3f, 0xbf, 0xdb, 0x0d, 0xbd,
  0x9e, 0x6b, 0xc5, 0x3e, 0xe8, 0x2b, 0x82, 0x3d, 0x74, 0xdf, 0x77, 0xbc,
  0x57, 0x1d, 0x52, 0xbe, 0x87, 0x41, 0x30, 0x3b, 0x40, 0xa3, 0x01, 0x3f,
  0x9a, 0xfa, 0x7c, 0x3d, 0x85, 0x13, 0x28, 0x3e, 0x70, 0x4a, 0xc2, 0x3e,
  0x15, 0x00, 0x08, 0x3e, 0x66, 0xc3, 0x27, 0xbc, 0x37, 0x81, 0xae, 0xbc,
  0x0b, 0xb9, 0xbf, 0x3d, 0x55, 0x05, 0x84, 0x3e, 0x5d, 0x5f, 0x1e, 0x3e,
  0xdf, 0x43, 0xa2, 0xbb, 0xbe, 0x51, 0x52, 0x3e, 0x32, 0x9a, 0x3e, 0xbd,
  0x0d, 0x2a, 0x51, 0xba, 0xfd, 0x9e, 0x04, 0xbe, 0x7e, 0xf7, 0x6e, 0x3e,
  0xbd, 0xd3, 0x9b, 0x3e, 0x36, 0x4c, 0xaa, 0x3e, 0x6c, 0xa5, 0xc3, 0x3e,
  0x1e, 0xbc, 0x0b, 0xbe, 0xd6, 0x35, 0xd4, 0x3d, 0x03, 0x9a, 0x90, 0x3e,
  0x30, 0xfe, 0x1c, 0x3e, 0x50, 0x48, 0x58, 0x3e, 0xdf, 0xd9, 0x30, 0x3e,
  0x8b, 0x71, 0x26, 0xbf, 0x45, 0x3e, 0x08, 0x3d, 0xe4, 0x14, 0x33, 0x3e,
  0x21, 0x36, 0xab, 0xbd, 0x4a, 0x08, 0xab, 0x3d, 0x6f, 0xe7, 0x83, 0xbe,
  0xb9, 0x0c, 0xac, 0xbb, 0xf4, 0x09, 0xa8, 0x3e, 0x37, 0xd4, 0xf2, 0xbd,
  0x2d, 0xe2, 0xdf, 0xbd, 0xa0, 0x4a, 0x00, 0x39, 0x34, 0x55, 0x8c, 0x3e,
  0x9b, 0x09, 0xc9, 0xbd, 0x13, 0x10, 0x22, 0x3d, 0x5d, 0xaf, 0xa3, 0x3d,
  0xe1, 0x0a, 0xf4, 0x3d, 0x6f, 0x0a, 0xa9, 0x3e, 0x89, 0x58, 0xa1, 0x3e,
  0x91, 0x23, 0x19, 0xbe, 0x1d, 0x67, 0xe1, 0x3e, 0xdf, 0x34, 0x9c, 0x3e,
  0x65, 0x7d, 0xa3, 0x3e, 0x26, 0x55, 0x9b, 0x3b, 0x43, 0x1a, 0xab, 0xbd,
  0xc0, 0x79, 0x4c, 0xbe, 0x06, 0xa8, 0x0d, 0x3e, 0xa6, 0x8c, 0x42, 0xbd,
  0x9b, 0x42, 0xe8, 0x3d, 0xa0, 0x7d, 0x33, 0xbe, 0xd8, 0x25, 0x8f, 0xbe,
  0xd9, 0xdd, 0x18, 0x3d, 0xbe, 0x78, 0x4b, 0xbe, 0xe5, 0x9c, 0x8b, 0x3d,
  0x60, 0xcf, 0x54, 0xbc, 0xb3, 0xb4, 0xb9, 0x3d, 0x10, 0x0f, 0xdf, 0x3d,
  0x46, 0x10, 0x21, 0xbe, 0x3e, 0xda, 0x06, 0xbe, 0x43, 0x81, 0xe0, 0x3e,
  0x49, 0x80, 0x20, 0x3e, 0x87, 0x01, 0xbb, 0xbc, 0x96, 0xac, 0x5b, 0x3e,
  0x57, 0x84, 0x3a, 0x3e, 0x0c, 0xff, 0x01, 0xbf, 0x3c, 0x15, 0xe3, 0x3e,
  0xde, 0xec, 0x51, 0x3d, 0xff, 0x5c, 0x6b, 0x3e, 0xa1, 0x38, 0xbd, 0x3e,
  0x0c, 0xad, 0x16, 0xbf, 0x12, 0x00, 0x4b, 0xbd, 0xbf, 0x72, 0x72, 0x3e,
  0x56, 0x6f, 0x7f, 0xbd, 0xc4, 0x64, 0x93, 0xbe, 0xe7, 0x43, 0x23, 0x3e,
  0x0e, 0x56, 0x8f, 0xbe, 0x52, 0xc7, 0xb7, 0x3e, 0x19, 0x60, 0x81, 0xbf,
  0x95, 0x0d, 0x33, 0xbe, 0x0a, 0xed, 0x9b, 0xbd, 0x4e, 0x78, 0x03, 0x3e,
  0x3e, 0xe2, 0x04, 0xbf, 0xc1, 0x16, 0x41, 0xbc, 0xae, 0x72, 0xde, 0x3d,
  0xdf, 0xc1, 0x2a, 0x3e, 0x16, 0x52, 0x85, 0x3d, 0x4e, 0xc0, 0xd8, 0x3e,
  0x53, 0xe0, 0x02, 0x3e, 0x55, 0x9e, 0x74, 0x3e, 0xd0, 0x25, 0x14, 0xbf,
  0x21, 0xea, 0xac, 0xbe, 0xb9, 0x11, 0x1f, 0x3c, 0x76, 0x09, 0x12, 0xbf,
  0xba, 0x56, 0xf3, 0xbd, 0xd0, 0x58, 0xee, 0xbe, 0xc0, 0x4c, 0xf9, 0xbe,
  0x70, 0x18, 0x9f, 0x3e, 0x87, 0xab, 0x92, 0xbd, 0xf2, 0x08, 0xad, 0xbe,
  0x88, 0x3a, 0xd7, 0x3d, 0x5b, 0x4e, 0x27, 0xbe, 0xc2, 0xa9, 0x04, 0xbf,
  0xb7, 0xc1, 0x84, 0xbf, 0xcd, 0x62, 0xb5, 0xbe, 0x2d, 0xc3, 0xb3, 0x3e,
  0xa3, 0xbe, 0x39, 0xbd, 0xd3, 0xee, 0x47, 0x3c, 0x5c, 0xe3, 0x67, 0xbe,
  0x7d, 0x1e, 0xae, 0xbe, 0x58, 0x6c, 0xe1, 0xbe, 0xc7, 0x6c, 0x89, 0xbe,
  0x72, 0x2a, 0xb6, 0xbe, 0xb2, 0xbd, 0x0c, 0xbf, 0x8b, 0xf0, 0x2c, 0xbe,
  0x3a, 0x75, 0xe1, 0x3d, 0x34, 0xb9, 0xc9, 0x3d, 0x69, 0x0b, 0x2d, 0xbe,
  0xc2, 0x60, 0x3c, 0x3e, 0xb0, 0x23, 0x66, 0xbe, 0xa1, 0x5d, 0x33, 0x3e,
  0xbd, 0xe9, 0x95, 0x3e, 0xa1, 0xf4, 0x46, 0xbf, 0x59, 0x5c, 0x26, 0x3d,
  0xf9, 0x1c, 0x7d, 0xbf, 0x74, 0x30, 0x24, 0xbe, 0xe1, 0x6c, 0x27, 0xbe,
  0x71, 0x59, 0x8c, 0xbc, 0xf4, 0x1c, 0xa5, 0x3b, 0x22, 0x9f, 0xc3, 0xbe,
  0xe3, 0x04, 0xa1, 0xbd, 0x67, 0x41, 0x91, 0x3e, 0xc3, 0x5f, 0xe1, 0xbc,
  0x5f, 0xa9, 0xf3, 0x3d, 0x5d, 0x66, 0xa0, 0x3d, 0x76, 0x9d, 0x19, 0x3e,
  0x07, 0xbb, 0xf4, 0xbd, 0xfa, 0x7e, 0x49, 0xbe, 0x38, 0xed, 0x27, 0xba,
  0xe7, 0xeb, 0xb6, 0x3e, 0xf5, 0x5d, 0xa9, 0xbe, 0x0e, 0xe7, 0xac, 0x3e,
  0x76, 0x3a, 0x1c, 0xbe, 0xc0, 0xb3, 0xa8, 0x3e, 0xe8, 0x3c, 0x31, 0xbe,
  0xe2, 0x8c, 0x19, 0x3e, 0x1e, 0x10, 0x3a, 0x3e, 0x68, 0x20, 0x37, 0xbe,
  0x3e, 0xa8, 0x0c, 0x3c, 0x59, 0xf1, 0xce, 0xbd, 0xd1, 0xcb, 0x43, 0xbe,
  0x4b, 0x75, 0xe4, 0xbd, 0x11, 0x9d, 0x33, 0x3d, 0xc7, 0x2e, 0xf0, 0x3c,
  0xda, 0x7c, 0x49, 0x3d, 0xf4, 0x28, 0x05, 0x3e, 0x5f, 0x69, 0x9b, 0xbe,
  0x6a, 0xd5, 0xe6, 0xbe, 0xb8, 0x01, 0x59, 0x3e, 0x2f, 0x94, 0x16, 0xbf,
  0xe3, 0x5d, 0xb5, 0x3e, 0x4e, 0xc2, 0x16, 0xbe, 0xc7, 0x22, 0x40, 0x3e,
  0xd3, 0xd3, 0x14, 0xbf, 0x6b, 0xe1, 0xf8, 0xbe, 0xb7, 0x3e, 0xbb, 0xbe,
  0x85, 0x84, 0x1f, 0x3e, 0xe7, 0x46, 0x5a, 0xbe, 0xbf, 0x90, 0xcd, 0xbe,
  0xe5, 0xb0, 0x35, 0x3d, 0x00, 0xc7, 0x95, 0x3d, 0x2c, 0x34, 0x23, 0xbf,
  0x57, 0xe0, 0xe3, 0x3d, 0x91, 0x46, 0xfb, 0xbe, 0x61, 0x9f, 0xf1, 0x3d,
  0xd7, 0x5b, 0x4b, 0x3e, 0x3c, 0x83, 0x27, 0xbf, 0x63, 0xfe, 0x17, 0x3d,
  0x03, 0x16, 0x71, 0xbd, 0xf6, 0x6b, 0xfb, 0x3c, 0x6d, 0xcc, 0x09, 0xbf,
  0x02, 0x60, 0x32, 0xbf, 0xb1, 0xc8, 0x4d, 0xbf, 0x17, 0x65, 0xe5, 0xbe,
  0x3b, 0xfb, 0xbe, 0xbe, 0x62, 0xc0, 0xcb, 0xbe, 0x1a, 0x08, 0xcd, 0xbe,
  0x23, 0xc4, 0x90, 0x3d, 0x18, 0x07, 0x98, 0x3e, 0x6e, 0xd9, 0x5c, 0xbe,
  0xd8, 0xb4, 0x8b, 0x3c, 0x36, 0xc5, 0x41, 0x3e, 0x7e, 0xd6, 0x9b, 0x3d,
  0xd8, 0x25, 0x6c, 0xbe, 0x90, 0xed, 0x95, 0x3d, 0x42, 0x38, 0x94, 0x3e,
  0xac, 0xe0, 0x3c, 0x3e, 0x27, 0x20, 0x1b, 0xbe, 0xa4, 0x4c, 0x9e, 0x3c,
  0xb6, 0xac, 0x16, 0x3e, 0x88, 0x0a, 0xe0, 0x3e, 0x49, 0x5c, 0x23, 0x3d,
  0x14, 0xeb, 0xeb, 0xbc, 0x64, 0x94, 0xf9, 0xbe, 0xf9, 0xcd, 0xac, 0xbc,
  0x57, 0x77, 0x73, 0x3e, 0x2d, 0xe0, 0x0e, 0xbe, 0xb0, 0xa7, 0x03, 0x3e,
  0xc9, 0x18, 0xe3, 0x3e, 0x7b, 0xc7, 0x12, 0x3f, 0x93, 0x71, 0xcf, 0x3c,
  0x1a, 0x3c, 0xbc, 0xbe, 0xe9, 0x65, 0xa9, 0x3d, 0xdd, 0x33, 0x44, 0x3e,
  0xbf, 0x21, 0x6e, 0xbb, 0x47, 0x73, 0x9c, 0x3e, 0xdc, 0x05, 0xe4, 0x3d,
  0x64, 0xda, 0x17, 0x3e, 0xe1, 0xc1, 0xd8, 0xbe, 0x6e, 0x2b, 0x7d, 0x3e,
  0xaf, 0xd7, 0x14, 0xbf, 0x53, 0xb0, 0x6d, 0x3e, 0x78, 0x15, 0xb2, 0xbd,
  0x31, 0x85, 0x3c, 0x3d, 0xe0, 0xb2, 0x3a, 0x3b, 0xff, 0x60, 0x83, 0xbf,
  0x04, 0x1b, 0xcb, 0x3d, 0xc7, 0xe9, 0xa1, 0xbe, 0xa6, 0x68, 0x3e, 0x3d,
  0x99, 0xc6, 0x28, 0x3c, 0x72, 0x84, 0xb5, 0x3e, 0x6c, 0x86, 0x9e, 0x3e,
  0x45, 0xc2, 0x4c, 0xbd, 0xf3, 0x17, 0x0f, 0x3e, 0x0f, 0x33, 0x12, 0x3e,
  0x30, 0x6d, 0x6c, 0x3d, 0xa8, 0xe7, 0xc0, 0x3e, 0x0c, 0xd8, 0xd7, 0xbd,
  0xa1, 0x47, 0x8c, 0xbd, 0x98, 0x5a, 0x23, 0x3e, 0x38, 0xc2, 0xfa, 0x3e,
  0x6d, 0xe3, 0xac, 0xbd, 0x30, 0xb4, 0xde, 0xbc, 0x02, 0x14, 0xe0, 0x3e,
  0xe1, 0xaa, 0xb3, 0x39, 0x0c, 0xfd, 0x79, 0x3e, 0xfb, 0x35, 0x37, 0xbd,
  0x48, 0x36, 0x52, 0x3c, 0xca, 0xb5, 0xc7, 0x3e, 0x93, 0x2b, 0x47, 0x3d,
  0x70, 0x00, 0x9d, 0x3d, 0xe4, 0xbf, 0xa9, 0xbd, 0x08, 0x03, 0x77, 0x3e,
  0xb1, 0xe2, 0xf5, 0x3e, 0xf2, 0x79, 0x16, 0xbe, 0xa9, 0xdd, 0xba, 0x3e,
  0xdc, 0xd0, 0x36, 0x3e, 0x7b, 0xb3, 0x8a, 0x3e, 0x25, 0x34, 0x5a, 0x3e,
  0xb9, 0x00, 0xb1, 0x3e, 0xc9, 0xf3, 0x44, 0xbc, 0x97, 0x95, 0xaf, 0x3e,
  0xe7, 0xef, 0xd4, 0x3e, 0x1d, 0x20, 0xb1, 0x3e, 0xda, 0x25, 0x88, 0xbe,
  0xc1, 0x30, 0x51, 0xbf, 0x2d, 0xd7, 0x02, 0xbb, 0xdb, 0x3f, 0xcc, 0xbd,
  0x22, 0xf5, 0x59, 0xbd, 0xce, 0x87, 0x41, 0xbe, 0x23, 0x79, 0x13, 0xbe,
  0x91, 0x47, 0x31, 0x3e, 0x7f, 0x54, 0x4c, 0xbe, 0xeb, 0x57, 0x0c, 0xbc,
  0xfa, 0x6b, 0x02, 0xbe, 0x0e, 0x9c, 0x4c, 0xbd, 0xd4, 0x42, 0x05, 0xbe,
  0x7f, 0x38, 0x7a, 0xbe, 0xdf, 0x0b, 0x71, 0xbd, 0x73, 0x21, 0x56, 0xbe,
  0x01, 0x4b, 0x15, 0xbe, 0xf0, 0x46, 0x31, 0xbe, 0x0b, 0x40, 0xc4, 0x3d,
  0x75, 0x09, 0x77, 0xbc, 0x00, 0x36, 0x55, 0x3e, 0x68, 0xe7, 0xe5, 0x3c,
  0x45, 0x67, 0x6e, 0x3d, 0x1b, 0xb5, 0xaa, 0xbe, 0x74, 0xd3, 0x14, 0xbd,
  0xbf, 0xbe, 0x7d, 0xbe, 0x0b, 0xc7, 0x4f, 0x3e, 0xe7, 0xb7, 0xe4, 0x3d,
  0xf9, 0xa3, 0x35, 0x3e, 0xc7, 0x51, 0x2b, 0x3d, 0x43, 0x2d, 0x6f, 0x3c,
  0x73, 0xd6, 0xec, 0xbd, 0x5d, 0x7f, 0x47, 0xbc, 0xba, 0x2e, 0x74, 0x3e,
  0x77, 0x1a, 0x45, 0xbd, 0x7b, 0xba, 0x3c, 0xbf, 0xc6, 0x25, 0x02, 0xbd,
  0xa2, 0x3c, 0x35, 0x3c, 0x2a, 0xd7, 0xd3, 0xbe, 0x36, 0x5d, 0x3a, 0x3e,
  0xf7, 0x29, 0x90, 0xbe, 0xc9, 0x21, 0xac, 0x3d, 0xa2, 0xeb, 0xb5, 0xbd,
  0x47, 0x51, 0x72, 0x3e, 0x65, 0xa7, 0x95, 0x3e, 0xc7, 0xa0, 0x88, 0x3d,
  0x25, 0xcb, 0x8b, 0x3c, 0x7b, 0xdd, 0x9c, 0x3e, 0xb1, 0x4c, 0x23, 0xbe,
  0xa2, 0x24, 0xdc, 0xbe, 0x40, 0x05, 0x45, 0xbe, 0xc8, 0x42, 0x64, 0x3e,
  0x81, 0xea, 0x21, 0xbe, 0xf3, 0x9a, 0x89, 0x3e, 0xae, 0x27, 0x3e, 0xbf,
  0x93, 0x74, 0x20, 0xbe, 0x03, 0x0d, 0xd6, 0xbd, 0xb0, 0x16, 0xe6, 0x3d,
  0x82, 0xe3, 0x9c, 0xbf, 0xe6, 0xc6, 0x00, 0xbd, 0x94, 0xde, 0x1d, 0x3e,
  0x46, 0x01, 0xc6, 0xbd, 0x26, 0x4d, 0x83, 0xbe, 0x12, 0xca, 0x90, 0xbc,
  0x0a, 0xee, 0xc0, 0x3d, 0xeb, 0x9f, 0xa7, 0x3e, 0xc1, 0x5a, 0x30, 0x3e,
  0xce, 0xf6, 0xff, 0xff, 0x04, 0x00, 0x00, 0x00, 0xc0, 0x06, 0x00, 0x00,
  0x6c, 0xaa, 0xa2, 0x3e, 0xff, 0xad, 0xd7, 0x3d, 0x06, 0xa3, 0xb7, 0xbd,
  0x8a, 0xcd, 0x84, 0xbd, 0xc2, 0x69, 0xe2, 0xbd, 0x9d, 0x5c, 0x33, 0x3d,
  0xbc, 0xad, 0x6b, 0xbe, 0x03, 0xfa, 0xef, 0x3e, 0x75, 0x81, 0xc9, 0x3d,
  0x05, 0xe3, 0x51, 0x3f, 0x76, 0xce, 0x60, 0x3e, 0x26, 0xe9, 0xf9, 0x3d,
  0xc2, 0xb0, 0x0c, 0xbe, 0x43, 0x64, 0x12, 0xbf, 0x4a, 0x82, 0x2c, 0xbc,
  0x32, 0x8d, 0xfd, 0xbe, 0xaf, 0xa1, 0xef, 0xbe, 0xd2, 0x89, 0x16, 0x3f,
  0x93, 0x52, 0x68, 0xbd, 0x58, 0x23, 0x09, 0xbe, 0x2e, 0x63, 0x36, 0xbe,
  0x37, 0x55, 0x68, 0xbf, 0xe2, 0xa8, 0x3b, 0xbe, 0xfe, 0x40, 0xc4, 0xbe,
  0x40, 0xdc, 0x7b, 0x3e, 0xb1, 0x80, 0xb8, 0x3e, 0xf6, 0xd9, 0xbf, 0x3e,
  0xd5, 0xbd, 0x39, 0xbf, 0xab, 0xab, 0x8d, 0x3e, 0xb4, 0x52, 0xb8, 0xbe,
  0x1a, 0x52, 0x3c, 0xbe, 0xa0, 0xf7, 0x23, 0xbe, 0xea, 0xd6, 0x43, 0xbe,
  0xcc, 0xaa, 0x96, 0x3f, 0x39, 0x08, 0x88, 0xbe, 0xbe, 0xa1, 0x4a, 0x3e,
  0xff, 0xeb, 0xb5, 0xbe, 0x7c, 0x36, 0x98, 0x3d, 0xbf, 0x8f, 0xf5, 0x3e,
  0xe6, 0xff, 0x5f, 0x3d, 0xf4, 0xf7, 0xd3, 0x3e, 0x8b, 0x39, 0xfc, 0xbc,
  0xf4, 0xcb, 0x3c, 0x3e, 0xc1, 0xcf, 0x2a, 0x3d, 0x6f, 0x6a, 0xb3, 0x3c,
  0x7a, 0x6f, 0x8b, 0xbe, 0xd6, 0x6d, 0x25, 0xbf, 0x03, 0xd5, 0xfb, 0x3d,
  0xf1, 0x44, 0x1b, 0x3e, 0x28, 0x82, 0xcd, 0xbd, 0x4d, 0x2d, 0x07, 0xbf,
  0xc7, 0x9e, 0x7b, 0xbd, 0xd5, 0x80, 0xfa, 0x3e, 0x25, 0xcd, 0x81, 0x3e,
  0x80, 0x14, 0x0e, 0xbd, 0x85, 0x5a, 0xa0, 0x3d, 0x31, 0xf5, 0x57, 0x3d,
  0x6b, 0x69, 0x47, 0x3d, 0x34, 0x4d, 0x87, 0x3e, 0x3e, 0x4c, 0x5e, 0xbe,
  0x07, 0x93, 0x7c, 0x3e, 0x17, 0xc7, 0xe4, 0x3d, 0x2f, 0x2c, 0xff, 0x3d,
  0x2b, 0x5c, 0x69, 0x3e, 0x44, 0x56, 0x57, 0x3d, 0x20, 0x34, 0x01, 0xbf,
  0x27, 0x2b, 0xe9, 0x3d, 0x93, 0x18, 0x78, 0xbd, 0x72, 0x1f, 0xcf, 0x3d,
  0xfd, 0x59, 0xbb, 0x3e, 0x7f, 0xf2, 0xc6, 0x3d, 0x83, 0x88, 0xce, 0xbd,
  0xa0, 0x22, 0xbc, 0x3c, 0xfa, 0x1e, 0xf8, 0xbe, 0x94, 0xc3, 0xd8, 0xbe,
  0xae, 0xa0, 0x7b, 0xbe, 0xf8, 0xff, 0x68, 0x3e, 0xe5, 0xba, 0xa9, 0x3e,
  0x96, 0x5c, 0x80, 0xbd, 0x22, 0x09, 0x40, 0x3e, 0x2f, 0x0e, 0x55, 0xbc,
  0x60, 0x66, 0x62, 0x3e, 0xe4, 0xed, 0xcd, 0xbe, 0x20, 0xac, 0x86, 0x3e,
  0x7b, 0xc0, 0x4a, 0x3d, 0x19, 0xaf, 0x85, 0x3e, 0x0f, 0xca, 0xd3, 0x3e,
  0x0d, 0xcd, 0x9c, 0x3c, 0xbe, 0xbf, 0x02, 0xbf, 0x18, 0x0e, 0x5f, 0xbe,
  0x7e, 0xd3, 0xc8, 0x3d, 0xb0, 0x01, 0x9f, 0xbe, 0x87, 0x8e, 0x81, 0xbe,
  0x6c, 0x54, 0xfc, 0xbd, 0x79, 0xd9, 0x9b, 0x3e, 0xd2, 0xc1, 0x81, 0xbe,
  0x1c, 0x8b, 0xdd, 0xbe, 0xa4, 0xb5, 0xf7, 0x3e, 0x3c, 0x39, 0xd3, 0x3e,
  0x48, 0xe0, 0x84, 0x3e, 0xc2, 0xaa, 0x96, 0xbe, 0xc8, 0x95, 0xae, 0x3e,
  0xc1, 0x3e, 0xa2, 0x3e, 0xd0, 0xb1, 0x5d, 0xbe, 0x73, 0x5b, 0x0a, 0xbe,
  0x0e, 0xf4, 0xe8, 0x3b, 0x9e, 0x42, 0x5a, 0xbd, 0x2e, 0xc4, 0xe3, 0xbe,
  0xb8, 0xfc, 0xe0, 0xbd, 0x4e, 0x21, 0xc3, 0xbe, 0x57, 0x16, 0x02, 0xbe,
  0x71, 0xb0, 0xa7, 0x3d, 0x4c, 0x1a, 0xcf, 0x3c, 0xae, 0xc4, 0x7b, 0x3e,
  0x5a, 0x0f, 0x8c, 0x3c, 0x53, 0xa6, 0x6d, 0xbe, 0xc7, 0x5d, 0xfc, 0xbd,
  0xbf, 0x01, 0xbd, 0x3d, 0xed, 0x69, 0x81, 0x3e, 0x49, 0xb2, 0x58, 0x3d,
  0x29, 0x49, 0xd6, 0x3d, 0xb5, 0x5c, 0xe8, 0xbc, 0xc2, 0x89, 0x7d, 0x3d,
  0x68, 0xfc, 0x22, 0xbc, 0xa1, 0xa0, 0x67, 0x3e, 0xe2, 0xd3, 0xde, 0x3b,
  0xf1, 0x7a, 0x4f, 0xbd, 0xa2, 0x73, 0x86, 0xbd, 0xd0, 0xe8, 0x10, 0xbe,
  0xdd, 0x86, 0x25, 0x3e, 0x2c, 0x08, 0x45, 0x3e, 0x5b, 0x7a, 0x71, 0x3e,
  0x9e, 0x0c, 0xd3, 0x3c, 0xb0, 0xa9, 0x3a, 0xbe, 0x95, 0x42, 0xfc, 0x3d,
  0x5a, 0x2a, 0x0e, 0x3e, 0xf7, 0xf2, 0xbe, 0x3e, 0x81, 0x51, 0x2c, 0x3c,
  0x71, 0xca, 0x68, 0xbc, 0x21, 0x25, 0xfa, 0xbd, 0x6c, 0x9b, 0xa9, 0x3e,
  0xf3, 0x17, 0xc5, 0xbb, 0xbe, 0x69, 0x85, 0x3e, 0xf4, 0xdd, 0xd2, 0xbd,
  0x6f, 0x61, 0x1a, 0xbe, 0x44, 0x18, 0x12, 0x3d, 0xa3, 0x42, 0xbc, 0x3d,
  0x15, 0xd8, 0x57, 0x3f, 0xe0, 0xc8, 0x68, 0x3e, 0x18, 0x74, 0xf6, 0x3e,
  0x8e, 0x0e, 0xea, 0x3e, 0x5b, 0x5a, 0xfb, 0x3d, 0x62, 0xa8, 0x85, 0xbd,
  0x5e, 0x42, 0x4e, 0xbf, 0xa9, 0xe4, 0x0e, 0xbe, 0x9a, 0x4d, 0x07, 0xbe,
  0x6d, 0x51, 0x9c, 0xbe, 0x27, 0x97, 0x47, 0xbe, 0xf0, 0xfd, 0x32, 0x3b,
  0x9c, 0x72, 0x81, 0xbb, 0xfd, 0x8c, 0x2b, 0xbd, 0xc2, 0x20, 0x20, 0xbf,
  0x85, 0xdf, 0x64, 0xbc, 0x77, 0x36, 0x5f, 0x3e, 0x89, 0x0a, 0xeb, 0xbd,
  0x86, 0x7b, 0x6b, 0x3d, 0xff, 0x6e, 0x32, 0x3e, 0x8a, 0xd3, 0x74, 0xbd,
  0x58, 0x67, 0xed, 0x3d, 0xcd, 0xba, 0x77, 0x3e, 0x5b, 0x30, 0x75, 0xbe,
  0x96, 0x5e, 0x26, 0xbd, 0x4c, 0x9c, 0x3a, 0xbe, 0x01, 0x93, 0x47, 0xbd,
  0xc3, 0x3c, 0x80, 0x3d, 0x65, 0x99, 0xfd, 0x3d, 0x80, 0xaa, 0xae, 0xbc,
  0x86, 0xef, 0xd5, 0x3c, 0x3d, 0xff, 0xd1, 0x3d, 0xbe, 0x31, 0x7d, 0xbe,
  0x5c, 0x3f, 0xd4, 0xbd, 0xcd, 0x81, 0x6d, 0xbe, 0xa6, 0x51, 0x69, 0x3e,
  0x70, 0xf6, 0xad, 0x3e, 0x3b, 0xed, 0x67, 0xbe, 0xcd, 0x13, 0x23, 0xbf,
  0x4a, 0x7a, 0xc3, 0xbd, 0xee, 0x13, 0x83, 0x3e, 0x31, 0x3a, 0xef, 0xbe,
  0xa3, 0xb4, 0x3b, 0xbe, 0x7b, 0x9b, 0xe5, 0x3e, 0x4c, 0x41, 0x02, 0x3f,
  0xa2, 0x32, 0x3a, 0x3e, 0x13, 0x8b, 0x78, 0xbb, 0x2d, 0xdc, 0x78, 0x3e,
  0x26, 0x2e, 0xdf, 0x3e, 0x99, 0xb2, 0x84, 0xbe, 0xdf, 0xdf, 0x99, 0x3e,
  0x3f, 0x33, 0x71, 0xbd, 0x14, 0x8f, 0x08, 0xbe, 0x86, 0x53, 0x86, 0x3c,
  0xff, 0x84, 0xb9, 0xbe, 0x66, 0x23, 0x51, 0x3c, 0x18, 0x3e, 0xcf, 0x3e,
  0x2b, 0x12, 0x3f, 0xbe, 0x9a, 0x40, 0xc0, 0xbe, 0x72, 0x1e, 0x24, 0xbe,
  0x98, 0x99, 0x66, 0xbd, 0x0a, 0x36, 0x2e, 0xbe, 0x3e, 0x5e, 0xdf, 0x3e,
  0x35, 0x3c, 0x1c, 0x3d, 0xe4, 0xa1, 0x2b, 0x3d, 0x44, 0x3d, 0x23, 0x3e,
  0xc5, 0x9f, 0x95, 0x3c, 0xde, 0x6a, 0xa3, 0xbd, 0x5c, 0x73, 0x18, 0x3e,
  0x03, 0x16, 0x66, 0xbe, 0x81, 0xac, 0x22, 0xbd, 0x24, 0x29, 0x05, 0xbd,
  0xf3, 0x9f, 0x16, 0xbe, 0x66, 0x03, 0xac, 0x3e, 0x20, 0x53, 0x4a, 0xbe,
  0x94, 0x0e, 0x39, 0x3d, 0x39, 0x02, 0x65, 0xbe, 0xb5, 0x02, 0xd0, 0x3d,
  0x4f, 0x4a, 0xdb, 0xbe, 0xab, 0x96, 0x0e, 0x3e, 0x44, 0x27, 0xae, 0xbe,
  0xfd, 0x43, 0x7c, 0xbe, 0xc1, 0x66, 0x93, 0xbe, 0xe2, 0xcb, 0x8e, 0xbd,
  0x8f, 0x15, 0x99, 0xbe, 0x34, 0x91, 0xf8, 0x3e, 0x7d, 0xfa, 0xe3, 0x3d,
  0x6c, 0xb2, 0x50, 0x3e, 0x4a, 0x70, 0x94, 0x3e, 0xb4, 0x05, 0x1e, 0x3e,
  0x81, 0x32, 0x57, 0x3e, 0x1d, 0x99, 0x8b, 0xbe, 0x69, 0x11, 0x81, 0x3e,
  0x98, 0x0d, 0x28, 0xbe, 0xf6, 0x88, 0x1d, 0xbd, 0x8b, 0xcc, 0xf7, 0xbe,
  0xa3, 0x70, 0xbf, 0x3e, 0xf5, 0x80, 0x4f, 0xbe, 0xbb, 0xf2, 0x71, 0xbf,
  0x18, 0xd3, 0x1a, 0xbd, 0x5f, 0x62, 0x7f, 0xbe, 0x5a, 0xe9, 0xbe, 0x3e,
  0x59, 0x2a, 0x21, 0x3f, 0xaa, 0xe7, 0x7b, 0x3c, 0x7e, 0x96, 0x00, 0x3e,
  0x5d, 0x74, 0x55, 0xbe, 0x30, 0xa6, 0xd7, 0xbe, 0x2d, 0x81, 0x30, 0x3e,
  0x62, 0x4c, 0x3a, 0xbd, 0x27, 0x42, 0x0d, 0x3e, 0xab, 0x72, 0xf3, 0x3d,
  0xa3, 0x22, 0x9f, 0xbc, 0xdb, 0xb2, 0x83, 0x3e, 0xa0, 0xfd, 0xe8, 0x3d,
  0x45, 0x1a, 0x1c, 0xbd, 0x6f, 0x79, 0x8e, 0x3d, 0xfe, 0x2b, 0x8e, 0xbd,
  0x12, 0x76, 0xf5, 0x3d, 0xd7, 0x95, 0x1d, 0xbb, 0x48, 0xff, 0x60, 0x3a,
  0xc6, 0x2a, 0xa7, 0xbc, 0x29, 0xb1, 0x9b, 0xbe, 0xe4, 0xe2, 0x2f, 0xbe,
  0x49, 0x2b, 0x7a, 0xbc, 0xf8, 0x34, 0x42, 0xbe, 0x72, 0x46, 0xb0, 0x3d,
  0xf3, 0x7f, 0x4e, 0xbd, 0x79, 0x0f, 0x81, 0x3e, 0x1f, 0x0b, 0x26, 0x3d,
  0xae, 0x7a, 0x10, 0xbd, 0xca, 0xdd, 0xce, 0xbe, 0xe0, 0x84, 0xae, 0x3d,
  0xc0, 0x1d, 0x35, 0x3e, 0x76, 0xee, 0xa3, 0xbd, 0x0d, 0x77, 0xcd, 0x3d,
  0x6b, 0x21, 0x20, 0x3e, 0x40, 0x87, 0x16, 0xbe, 0xcb, 0x5b, 0x04, 0x3d,
  0x65, 0x84, 0x16, 0xbe, 0x0f, 0x10, 0x5f, 0xbd, 0xf7, 0x73, 0xae, 0xbd,
  0x53, 0x78, 0x93, 0xbe, 0xdc, 0xfc, 0x3f, 0xba, 0x2a, 0xc5, 0x60, 0xbe,
  0x09, 0xb3, 0xbd, 0x3e, 0xe8, 0x10, 0x40, 0xbe, 0x9a, 0xfd, 0xce, 0xbd,
  0x38, 0xc0, 0x64, 0xbe, 0xbf, 0xb3, 0x7a, 0x3e, 0x76, 0x81, 0x28, 0xbe,
  0x0b, 0x57, 0x09, 0xbe, 0x8d, 0x62, 0xe0, 0x3d, 0x77, 0xae, 0x45, 0xbe,
  0xd0, 0xdb, 0x27, 0x3c, 0x9d, 0xfc, 0xd4, 0x3d, 0x9b, 0x2d, 0x97, 0xbb,
  0x5f, 0x6a, 0x2b, 0xbe, 0x89, 0x96, 0xc8, 0xbd, 0xe3, 0x4c, 0x86, 0x3e,
  0x33, 0x20, 0x51, 0x3e, 0x72, 0x79, 0x98, 0xbe, 0x0c, 0x9c, 0x93, 0x3e,
  0x21, 0xf9, 0x4e, 0x3c, 0xfc, 0x26, 0x9d, 0xbe, 0xe0, 0x7d, 0x82, 0x3f,
  0x44, 0x4e, 0xb0, 0xbe, 0xc9, 0xc2, 0x35, 0x3e, 0xc7, 0xcc, 0x9f, 0xbe,
  0xba, 0xcc, 0xf2, 0xbe, 0x2e, 0xbf, 0x63, 0x3e, 0x8f, 0x2c, 0x05, 0xbf,
  0xe3, 0x7d, 0xfe, 0x3d, 0x76, 0xc1, 0x17, 0x3e, 0x4f, 0xfc, 0xb0, 0x3c,
  0xf2, 0x8a, 0x89, 0xbf, 0x4b, 0xe6, 0xe1, 0x3e, 0x2c, 0x2a, 0xa3, 0xbe,
  0x5f, 0xdb, 0x6c, 0xbe, 0xaa, 0x46, 0x92, 0xbe, 0x8d, 0x90, 0x51, 0x3d,
  0xa4, 0x35, 0x99, 0xbd, 0x73, 0x0a, 0x11, 0x3e, 0x70, 0xe1, 0x82, 0xbe,
  0xbf, 0x7a, 0xfb, 0x3e, 0x80, 0x96, 0x07, 0x3f, 0xb7, 0x4f, 0x90, 0xbd,
  0xb5, 0x0e, 0x25, 0x3f, 0x42, 0xb9, 0xf6, 0xbd, 0x4a, 0xe0, 0xa4, 0x3e,
  0xf3, 0xc2, 0x71, 0xbe, 0xc2, 0x62, 0x6c, 0xbe, 0xd5, 0xf7, 0x93, 0xbb,
  0x12, 0x12, 0x24, 0xbf, 0xd8, 0x12, 0xbc, 0xbd, 0x51, 0xa4, 0xe7, 0x3d,
  0xe8, 0x39, 0xa1, 0x3e, 0x75, 0x00, 0x9f, 0x3e, 0x27, 0x82, 0x34, 0xbe,
  0xa5, 0x1e, 0x1d, 0xbf, 0xe9, 0x2d, 0x80, 0x3e, 0xf7, 0x93, 0x1c, 0xbf,
  0x59, 0x0d, 0xff, 0x3c, 0x4d, 0x53, 0x9e, 0xbe, 0x03, 0x35, 0x3d, 0x3d,
  0x3e, 0xb4, 0x8b, 0xbe, 0x62, 0x97, 0xc5, 0xbd, 0xd7, 0x68, 0xaa, 0x3e,
  0x86, 0x04, 0xb6, 0xbe, 0x51, 0x73, 0x57, 0xbc, 0x57, 0x21, 0x15, 0x3e,
  0x34, 0xeb, 0x80, 0xbe, 0x28, 0x5f, 0xb1, 0x3d, 0xab, 0xac, 0x11, 0xbf,
  0x87, 0x21, 0x41, 0xbd, 0xc1, 0x1e, 0xaf, 0x3d, 0x3d, 0x1f, 0xec, 0xbb,
  0x3a, 0xb5, 0x92, 0xbe, 0x78, 0x80, 0x5c, 0x3e, 0xf9, 0x58, 0x7c, 0xbe,
  0x11, 0x65, 0x44, 0x3e, 0xe2, 0xb9, 0x14, 0xbf, 0xea, 0x88, 0x7d, 0x3c,
  0x38, 0xab, 0xfd, 0x3e, 0xd0, 0x96, 0x52, 0xbd, 0xf0, 0x54, 0x1a, 0xbf,
  0xa4, 0xc4, 0x34, 0xbe, 0xba, 0x7f, 0x02, 0x3f, 0x3e, 0xea, 0xad, 0x3b,
  0xb5, 0xe1, 0x98, 0x3e, 0xca, 0x5c, 0x9b, 0xbe, 0xd5, 0x2c, 0xbe, 0x3e,
  0x47, 0xd4, 0x0c, 0xbf, 0x8e, 0x27, 0x08, 0x3e, 0x94, 0x90, 0x9f, 0x3e,
  0xab, 0x8e, 0x99, 0xbe, 0x58, 0x8d, 0x97, 0x3e, 0x61, 0xd5, 0x5d, 0x3d,
  0xd2, 0xc3, 0xf2, 0x3d, 0xd6, 0x43, 0xa3, 0xbe, 0x27, 0x12, 0xac, 0xbc,
  0x63, 0x75, 0x81, 0xbe, 0xf0, 0x7d, 0x10, 0x3f, 0x10, 0x00, 0xb4, 0x3e,
  0x72, 0x6f, 0xdd, 0x3e, 0x04, 0xb4, 0x3e, 0x3e, 0xaf, 0x03, 0x8f, 0xbe,
  0xb4, 0x4a, 0x1a, 0x3e, 0xaf, 0x62, 0x6d, 0x3e, 0xb3, 0xae, 0xdc, 0xbe,
  0xb9, 0x01, 0x4c, 0x3e, 0xaf, 0xc7, 0x56, 0x3e, 0xce, 0x00, 0xbc, 0xbd,
  0x5c, 0x2a, 0x88, 0x3e, 0x3c, 0x16, 0xb6, 0x3d, 0xe8, 0x1e, 0x84, 0xbe,
  0xe5, 0xea, 0xa7, 0xbe, 0x58, 0x20, 0x1f, 0xbf, 0x1c, 0xf0, 0x5c, 0x3e,
  0xe3, 0x6f, 0xee, 0xbd, 0xb1, 0xe8, 0x1e, 0xbb, 0x16, 0xe0, 0xd5, 0x3e,
  0x63, 0x9e, 0x02, 0x3e, 0x3a, 0x97, 0xdc, 0x3e, 0x51, 0xd4, 0xde, 0xbd,
  0xbc, 0x59, 0xd0, 0xbe, 0x52, 0x14, 0xb5, 0xbd, 0xb2, 0xe5, 0x26, 0x3f,
  0xf6, 0x70, 0x62, 0xbe, 0x46, 0x8b, 0xd4, 0x3e, 0x60, 0xcd, 0x85, 0xbe,
  0x5c, 0xc6, 0x44, 0x3f, 0x75, 0x09, 0x36, 0xbf, 0xb7, 0x43, 0x17, 0x3f,
  0x6e, 0x08, 0x0c, 0x3d, 0x7f, 0xf6, 0xc5, 0xbe, 0x1c, 0xec, 0xaf, 0x3e,
  0x03, 0x2c, 0x8d, 0xbd, 0x35, 0x72, 0x67, 0x3e, 0xbe, 0x01, 0xed, 0xbe,
  0xac, 0x04, 0x3e, 0x3e, 0x34, 0x02, 0x8c, 0xbc, 0x2c, 0x47, 0x6d, 0xbd,
  0x86, 0x58, 0xeb, 0x3d, 0xdb, 0x2a, 0x06, 0x3f, 0x43, 0xaa, 0xe2, 0xbd,
  0x9a, 0xfd, 0xff, 0xff, 0x04, 0x00, 0x00, 0x00, 0x60, 0x00, 0x00, 0x00,
  0x0a, 0xb6, 0x50, 0xbf, 0x39, 0x41, 0xe8, 0xbe, 0xad, 0xbf, 0x04, 0xbf,
  0x66, 0x26, 0x5a, 0xbf, 0xf9, 0x84, 0x02, 0xbf, 0xe6, 0x85, 0xc3, 0xbe,
  0xa5, 0x57, 0xb7, 0xbe, 0x8b, 0xe2, 0x18, 0xbf, 0x3b, 0x97, 0x09, 0xbf,
  0x73, 0xc7, 0x35, 0xbf, 0xf8, 0xc9, 0xdf, 0xbe, 0x95, 0x28, 0x61, 0xbf,
  0x08, 0x16, 0x28, 0xbf, 0x44, 0xc3, 0x1a, 0xbf, 0x42, 0xa8, 0xdb, 0xbd,
  0xce, 0x25, 0x8a, 0xbf, 0x1a, 0x58, 0xdc, 0xbe, 0xda, 0x6f, 0x4f, 0xbe,
  0xb5, 0x4d, 0xc0, 0xbe, 0x03, 0x81, 0x7a, 0xbe, 0x99, 0xa1, 0xd5, 0xbe,
  0x77, 0x7a, 0xaa, 0xbe, 0x73, 0x21, 0xaa, 0xbe, 0xbe, 0xbd, 0xf0, 0xbe,
  0x06, 0xfe, 0xff, 0xff, 0x04, 0x00, 0x00, 0x00, 0x0c, 0x00, 0x00, 0x00,
  0xad, 0xea, 0x05, 0x3d, 0x5f, 0x23, 0x18, 0x3e, 0x98, 0xd5, 0x66, 0xbc,
  0x1e, 0xfe, 0xff, 0xff, 0x04, 0x00, 0x00, 0x00, 0x60, 0x00, 0x00, 0x00,
  0xa6, 0x40, 0x85, 0xbd, 0xfe, 0x54, 0x34, 0x3e, 0xd1, 0x32, 0x22, 0x3f,
  0x02, 0x09, 0x41, 0x3e, 0x71, 0x55, 0x93, 0x3e, 0xc0, 0x50, 0x3a, 0x3e,
  0xc8, 0xca, 0x8a, 0x3e, 0xb0, 0x5c, 0xcb, 0x3d, 0x66, 0x82, 0xdf, 0x3e,
  0xc3, 0x96, 0xf7, 0xbd, 0x37, 0xc3, 0x49, 0x3e, 0xfa, 0xc6, 0xa1, 0xbd,
  0x21, 0xb8, 0x01, 0x3f, 0x93, 0xd1, 0x08, 0x3e, 0x75, 0xf6, 0x0b, 0x3f,
  0x99, 0x6b, 0x79, 0x3e, 0x3e, 0x2a, 0x64, 0x3e, 0x2b, 0xe3, 0x3c, 0x3e,
  0xa3, 0x77, 0x77, 0x3f, 0xdb, 0x8e, 0x3c, 0x3e, 0x99, 0xdd, 0x58, 0x3e,
  0xba, 0x5f, 0x99, 0x3d, 0x17, 0x1b, 0x19, 0x3e, 0xa1, 0x27, 0x89, 0x3f,
  0x8a, 0xfe, 0xff, 0xff, 0x04, 0x00, 0x00, 0x00, 0x60, 0x00, 0x00, 0x00,
  0x98, 0xa0, 0x16, 0xbd, 0xb6, 0xcd, 0x74, 0xbd, 0xd0, 0x22, 0x86, 0x3f,
  0xf6, 0xa4, 0x84, 0xbe, 0x27, 0xdd, 0x58, 0xbe, 0xeb, 0xd5, 0x86, 0x3e,
  0x75, 0x47, 0x6b, 0x3f, 0xe4, 0x6d, 0xc6, 0xbd, 0xb1, 0xe0, 0x77, 0x3e,
  0xb8, 0xd2, 0x41, 0xbf, 0x4e, 0x65, 0x5f, 0x3d, 0xb2, 0x3c, 0x8d, 0xbe,
  0x16, 0xc1, 0xee, 0xbd, 0xd5, 0xb1, 0xd4, 0xbe, 0x3b, 0xc5, 0x75, 0xbe,
  0x1b, 0xb4, 0x68, 0xbf, 0xfd, 0x02, 0x22, 0xbf, 0x0b, 0x8c, 0xaa, 0xbe,
  0xa3, 0xad, 0x39, 0x3e, 0xc4, 0x10, 0x91, 0xbd, 0xa8, 0x21, 0xcb, 0xbe,
  0x62, 0xd2, 0x01, 0x3e, 0x73, 0x6f, 0x0e, 0x3f, 0x81, 0x78, 0x30, 0x3e,
  0xf6, 0xfe, 0xff, 0xff, 0x04, 0x00, 0x00, 0x00, 0x60, 0x00, 0x00, 0x00,
  0x5f, 0xa6, 0x02, 0x3f, 0x1c, 0x65, 0x47, 0xbf, 0x51, 0xf4, 0x15, 0x3f,
  0x7e, 0x19, 0x37, 0xbe, 0x76, 0x00, 0x32, 0xbe, 0x11, 0x3a, 0x12, 0x3f,
  0x33, 0x38, 0xb1, 0x3e, 0x3e, 0xc3, 0xab, 0xbe, 0x62, 0x13, 0x59, 0xbf,
  0x8e, 0x38, 0x8f, 0xbe, 0x08, 0x5d, 0x18, 0xbf, 0x5c, 0x89, 0xc6, 0xbe,
  0xd3, 0xe0, 0x43, 0xbf, 0xb2, 0x63, 0xf0, 0x3d, 0x14, 0xa5, 0xde, 0x3e,
  0xc0, 0x4d, 0x94, 0x3e, 0xb2, 0xe7, 0x00, 0xbe, 0xde, 0x44, 0x7e, 0x3e,
  0xc5, 0x04, 0x2a, 0xbf, 0xc4, 0x06, 0x14, 0xbd, 0x0d, 0x48, 0x5f, 0xbe,
  0x15, 0xe2, 0x92, 0xbe, 0x59, 0x13, 0x80, 0x3e, 0x3f, 0x24, 0xc6, 0xbe,
  0x64, 0xf7, 0xff, 0xff, 0x68, 0xf7, 0xff, 0xff, 0x0f, 0x00, 0x00, 0x00,
  0x4d, 0x4c, 0x49, 0x52, 0x20, 0x43, 0x6f, 0x6e, 0x76, 0x65, 0x72, 0x74,
  0x65, 0x64, 0x2e, 0x00, 0x01, 0x00, 0x00, 0x00, 0x14, 0x00, 0x00, 0x00,
  0x00, 0x00, 0x0e, 0x00, 0x18, 0x00, 0x14, 0x00, 0x10, 0x00, 0x0c, 0x00,
  0x08, 0x00, 0x04, 0x00, 0x0e, 0x00, 0x00, 0x00, 0x14, 0x00, 0x00, 0x00,
  0x1c, 0x00, 0x00, 0x00, 0x94, 0x01, 0x00, 0x00, 0x98, 0x01, 0x00, 0x00,
  0x9c, 0x01, 0x00, 0x00, 0x04, 0x00, 0x00, 0x00, 0x6d, 0x61, 0x69, 0x6e,
  0x00, 0x00, 0x00, 0x00, 0x06, 0x00, 0x00, 0x00, 0x3c, 0x01, 0x00, 0x00,
  0xf4, 0x00, 0x00, 0x00, 0xbc, 0x00, 0x00, 0x00, 0x84, 0x00, 0x00, 0x00,
  0x50, 0x00, 0x00, 0x00, 0x14, 0x00, 0x00, 0x00, 0x00, 0x00, 0x0e, 0x00,
  0x1a, 0x00, 0x14, 0x00, 0x10, 0x00, 0x0c, 0x00, 0x0b, 0x00, 0x04, 0x00,
  0x0e, 0x00, 0x00, 0x00, 0x1c, 0x00, 0x00, 0x00, 0x00, 0x00, 0x00, 0x09,
  0x1c, 0x00, 0x00, 0x00, 0x20, 0x00, 0x00, 0x00, 0x01, 0x00, 0x00, 0x00,
  0x00, 0x00, 0x06, 0x00, 0x08, 0x00, 0x04, 0x00, 0x06, 0x00, 0x00, 0x00,
  0x00, 0x00, 0x80, 0x3f, 0x01, 0x00, 0x00, 0x00, 0x10, 0x00, 0x00, 0x00,
  0x01, 0x00, 0x00, 0x00, 0x0f, 0x00, 0x00, 0x00, 0x32, 0xff, 0xff, 0xff,
  0x10, 0x00, 0x00, 0x00, 0x00, 0x00, 0x00, 0x08, 0x0c, 0x00, 0x00, 0x00,
  0x10, 0x00, 0x00, 0x00, 0x34, 0xf8, 0xff, 0xff, 0x01, 0x00, 0x00, 0x00,
  0x0f, 0x00, 0x00, 0x00, 0x03, 0x00, 0x00, 0x00, 0x0e, 0x00, 0x00, 0x00,
  0x0a, 0x00, 0x00, 0x00, 0x04, 0x00, 0x00, 0x00, 0x62, 0xff, 0xff, 0xff,
  0x10, 0x00, 0x00, 0x00, 0x00, 0x00, 0x00, 0x08, 0x10, 0x00, 0x00, 0x00,
  0x14, 0x00, 0x00, 0x00, 0x52, 0xff, 0xff, 0xff, 0x00, 0x00, 0x00, 0x01,
  0x01, 0x00, 0x00, 0x00, 0x0e, 0x00, 0x00, 0x00, 0x03, 0x00, 0x00, 0x00,
  0x0d, 0x00, 0x00, 0x00, 0x09, 0x00, 0x00, 0x00, 0x03, 0x00, 0x00, 0x00,
  0x96, 0xff, 0xff, 0xff, 0x10, 0x00, 0x00, 0x00, 0x00, 0x00, 0x00, 0x08,
  0x10, 0x00, 0x00, 0x00, 0x14, 0x00, 0x00, 0x00, 0x86, 0xff, 0xff, 0xff,
  0x00, 0x00, 0x00, 0x01, 0x01, 0x00, 0x00, 0x00, 0x0d, 0x00, 0x00, 0x00,
  0x03, 0x00, 0x00, 0x00, 0x0c, 0x00, 0x00, 0x00, 0x08, 0x00, 0x00, 0x00,
  0x02, 0x00, 0x00, 0x00, 0xca, 0xff, 0xff, 0xff, 0x10, 0x00, 0x00, 0x00,
  0x00, 0x00, 0x00, 0x08, 0x10, 0x00, 0x00, 0x00, 0x14, 0x00, 0x00, 0x00,
  0xba, 0xff, 0xff, 0xff, 0x00, 0x00, 0x00, 0x01, 0x01, 0x00, 0x00, 0x00,
  0x0c, 0x00, 0x00, 0x00, 0x03, 0x00, 0x00, 0x00, 0x0b, 0x00, 0x00, 0x00,
  0x07, 0x00, 0x00, 0x00, 0x01, 0x00, 0x00, 0x00, 0x00, 0x00, 0x0e, 0x00,
  0x16, 0x00, 0x00, 0x00, 0x10, 0x00, 0x0c, 0x00, 0x0b, 0x00, 0x04, 0x00,
  0x0e, 0x00, 0x00, 0x00, 0x18, 0x00, 0x00, 0x00, 0x00, 0x00, 0x00, 0x08,
  0x18, 0x00, 0x00, 0x00, 0x1c, 0x00, 0x00, 0x00, 0x00, 0x00, 0x06, 0x00,
  0x08, 0x00, 0x07, 0x00, 0x06, 0x00, 0x00, 0x00, 0x00, 0x00, 0x00, 0x01,
  0x01, 0x00, 0x00, 0x00, 0x0b, 0x00, 0x00, 0x00, 0x03, 0x00, 0x00, 0x00,
  0x00, 0x00, 0x00, 0x00, 0x06, 0x00, 0x00, 0x00, 0x05, 0x00, 0x00, 0x00,
  0x01, 0x00, 0x00, 0x00, 0x10, 0x00, 0x00, 0x00, 0x01, 0x00, 0x00, 0x00,
  0x00, 0x00, 0x00, 0x00, 0x11, 0x00, 0x00, 0x00, 0x8c, 0x06, 0x00, 0x00,
  0x1c, 0x06, 0x00, 0x00, 0xac, 0x05, 0x00, 0x00, 0x54, 0x05, 0x00, 0x00,
  0xfc, 0x04, 0x00, 0x00, 0xa8, 0x04, 0x00, 0x00, 0x60, 0x04, 0x00, 0x00,
  0x14, 0x04, 0x00, 0x00, 0xc8, 0x03, 0x00, 0x00, 0x7c, 0x03, 0x00, 0x00,
  0x30, 0x03, 0x00, 0x00, 0xa0, 0x02, 0x00, 0x00, 0x08, 0x02, 0x00, 0x00,
  0x70, 0x01, 0x00, 0x00, 0xd8, 0x00, 0x00, 0x00, 0x60, 0x00, 0x00, 0x00,
  0x04, 0x00, 0x00, 0x00, 0xce, 0xf9, 0xff, 0xff, 0x00, 0x00, 0x00, 0x01,
  0x14, 0x00, 0x00, 0x00, 0x1c, 0x00, 0x00, 0x00, 0x1c, 0x00, 0x00, 0x00,
  0x11, 0x00, 0x00, 0x00, 0x34, 0x00, 0x00, 0x00, 0x02, 0x00, 0x00, 0x00,
  0xff, 0xff, 0xff, 0xff, 0x03, 0x00, 0x00, 0x00, 0xb8, 0xf9, 0xff, 0xff,
  0x19, 0x00, 0x00, 0x00, 0x53, 0x74, 0x61, 0x74, 0x65, 0x66, 0x75, 0x6c,
  0x50, 0x61, 0x72, 0x74, 0x69, 0x74, 0x69, 0x6f, 0x6e, 0x65, 0x64, 0x43,
  0x61, 0x6c, 0x6c, 0x3a, 0x30, 0x00, 0x00, 0x00, 0x02, 0x00, 0x00, 0x00,
  0x01, 0x00, 0x00, 0x00, 0x03, 0x00, 0x00, 0x00, 0x26, 0xfa, 0xff, 0xff,
  0x00, 0x00, 0x00, 0x01, 0x14, 0x00, 0x00, 0x00, 0x1c, 0x00, 0x00, 0x00,
  0x1c, 0x00, 0x00, 0x00, 0x10, 0x00, 0x00, 0x00, 0x50, 0x00, 0x00, 0x00,
  0x02, 0x00, 0x00, 0x00, 0xff, 0xff, 0xff, 0xff, 0x03, 0x00, 0x00, 0x00,
  0x10, 0xfa, 0xff, 0xff, 0x34, 0x00, 0x00, 0x00, 0x73, 0x65, 0x71, 0x75,
  0x65, 0x6e, 0x74, 0x69, 0x61, 0x6c, 0x2f, 0x64, 0x65, 0x6e, 0x73, 0x65,
  0x5f, 0x34, 0x2f, 0x4d, 0x61, 0x74, 0x4d, 0x75, 0x6c, 0x3b, 0x73, 0x65,
  0x71, 0x75, 0x65, 0x6e, 0x74, 0x69, 0x61, 0x6c, 0x2f, 0x64, 0x65, 0x6e,
  0x73, 0x65, 0x5f, 0x34, 0x2f, 0x42, 0x69, 0x61, 0x73, 0x41, 0x64, 0x64,
  0x00, 0x00, 0x00, 0x00, 0x02, 0x00, 0x00, 0x00, 0x01, 0x00, 0x00, 0x00,
  0x03, 0x00, 0x00, 0x00, 0x9a, 0xfa, 0xff, 0xff, 0x00, 0x00, 0x00, 0x01,
  0x14, 0x00, 0x00, 0x00, 0x1c, 0x00, 0x00, 0x00, 0x1c, 0x00, 0x00, 0x00,
  0x0f, 0x00, 0x00, 0x00, 0x70, 0x00, 0x00, 0x00, 0x02, 0x00, 0x00, 0x00,
  0xff, 0xff, 0xff, 0xff, 0x18, 0x00, 0x00, 0x00, 0x84, 0xfa, 0xff, 0xff,
  0x54, 0x00, 0x00, 0x00, 0x73, 0x65, 0x71, 0x75, 0x65, 0x6e, 0x74, 0x69,
  0x61, 0x6c, 0x2f, 0x64, 0x65, 0x6e, 0x73, 0x65, 0x5f, 0x33, 0x2f, 0x4d,
  0x61, 0x74, 0x4d, 0x75, 0x6c, 0x3b, 0x73, 0x65, 0x71, 0x75, 0x65, 0x6e,
  0x74, 0x69, 0x61, 0x6c, 0x2f, 0x64, 0x65, 0x6e, 0x73, 0x65, 0x5f, 0x33,
  0x2f, 0x72, 0x65, 0x5f, 0x6c, 0x75, 0x5f, 0x33, 0x2f, 0x52, 0x65, 0x6c,
  0x75, 0x3b, 0x73, 0x65, 0x71, 0x75, 0x65, 0x6e, 0x74, 0x69, 0x61, 0x6c,
  0x2f, 0x64, 0x65, 0x6e, 0x73, 0x65, 0x5f, 0x33, 0x2f, 0x42, 0x69, 0x61,
  0x73, 0x41, 0x64, 0x64, 0x00, 0x00, 0x00, 0x00, 0x02, 0x00, 0x00, 0x00,
  0x01, 0x00, 0x00, 0x00, 0x18, 0x00, 0x00, 0x00, 0x2e, 0xfb, 0xff, 0xff,
  0x00, 0x00, 0x00, 0x01, 0x14, 0x00, 0x00, 0x00, 0x1c, 0x00, 0x00, 0x00,
  0x1c, 0x00, 0x00, 0x00, 0x0e, 0x00, 0x00, 0x00, 0x70, 0x00, 0x00, 0x00,
  0x02, 0x00, 0x00, 0x00, 0xff, 0xff, 0xff, 0xff, 0x18, 0x00, 0x00, 0x00,
  0x18, 0xfb, 0xff, 0xff, 0x54, 0x00, 0x00, 0x00, 0x73, 0x65, 0x71, 0x75,
  0x65, 0x6e, 0x74, 0x69, 0x61, 0x6c, 0x2f, 0x64, 0x65, 0x6e, 0x73, 0x65,
  0x5f, 0x32, 0x2f, 0x4d, 0x61, 0x74, 0x4d, 0x75, 0x6c, 0x3b, 0x73, 0x65,
  0x71, 0x75, 0x65, 0x6e, 0x74, 0x69, 0x61, 0x6c, 0x2f, 0x64, 0x65, 0x6e,
  0x73, 0x65, 0x5f, 0x32, 0x2f, 0x72, 0x65, 0x5f, 0x6c, 0x75, 0x5f, 0x32,
  0x2f, 0x52, 0x65, 0x6c, 0x75, 0x3b, 0x73, 0x65, 0x71, 0x75, 0x65, 0x6e,
  0x74, 0x69, 0x61, 0x6c, 0x2f, 0x64, 0x65, 0x6e, 0x73, 0x65, 0x5f, 0x32,
  0x2f, 0x42, 0x69, 0x61, 0x73, 0x41, 0x64, 0x64, 0x00, 0x00, 0x00, 0x00,
  0x02, 0x00, 0x00, 0x00, 0x01, 0x00, 0x00, 0x00, 0x18, 0x00, 0x00, 0x00,
  0xc2, 0xfb, 0xff, 0xff, 0x00, 0x00, 0x00, 0x01, 0x14, 0x00, 0x00, 0x00,
  0x1c, 0x00, 0x00, 0x00, 0x1c, 0x00, 0x00, 0x00, 0x0d, 0x00, 0x00, 0x00,
  0x70, 0x00, 0x00, 0x00, 0x02, 0x00, 0x00, 0x00, 0xff, 0xff, 0xff, 0xff,
  0x18, 0x00, 0x00, 0x00, 0xac, 0xfb, 0xff, 0xff, 0x54, 0x00, 0x00, 0x00,
  0x73, 0x65, 0x71, 0x75, 0x65, 0x6e, 0x74, 0x69, 0x61, 0x6c, 0x2f, 0x64,
  0x65, 0x6e, 0x73, 0x65, 0x5f, 0x31, 0x2f, 0x4d, 0x61, 0x74, 0x4d, 0x75,
  0x6c, 0x3b, 0x73, 0x65, 0x71, 0x75, 0x65, 0x6e, 0x74, 0x69, 0x61, 0x6c,
  0x2f, 0x64, 0x65, 0x6e, 0x73, 0x65, 0x5f, 0x31, 0x2f, 0x72, 0x65, 0x5f,
  0x6c, 0x75, 0x5f, 0x31, 0x2f, 0x52, 0x65, 0x6c, 0x75, 0x3b, 0x73, 0x65,
  0x71, 0x75, 0x65, 0x6e, 0x74, 0x69, 0x61, 0x6c, 0x2f, 0x64, 0x65, 0x6e,
  0x73, 0x65, 0x5f, 0x31, 0x2f, 0x42, 0x69, 0x61, 0x73, 0x41, 0x64, 0x64,
  0x00, 0x00, 0x00, 0x00, 0x02, 0x00, 0x00, 0x00, 0x01, 0x00, 0x00, 0x00,
  0x18, 0x00, 0x00, 0x00, 0x56, 0xfc, 0xff, 0xff, 0x00, 0x00, 0x00, 0x01,
  0x14, 0x00, 0x00, 0x00, 0x1c, 0x00, 0x00, 0x00, 0x1c, 0x00, 0x00, 0x00,
  0x0c, 0x00, 0x00, 0x00, 0x68, 0x00, 0x00, 0x00, 0x02, 0x00, 0x00, 0x00,
  0xff, 0xff, 0xff, 0xff, 0x18, 0x00, 0x00, 0x00, 0x40, 0xfc, 0xff, 0xff,
  0x4c, 0x00, 0x00, 0x00, 0x73, 0x65, 0x71, 0x75, 0x65, 0x6e, 0x74, 0x69,
  0x61, 0x6c, 0x2f, 0x64, 0x65, 0x6e, 0x73, 0x65, 0x2f, 0x4d, 0x61, 0x74,
  0x4d, 0x75, 0x6c, 0x3b, 0x73, 0x65, 0x71, 0x75, 0x65, 0x6e, 0x74, 0x69,
  0x61, 0x6c, 0x2f, 0x64, 0x65, 0x6e, 0x73, 0x65, 0x2f, 0x72, 0x65, 0x5f,
  0x6c, 0x75, 0x2f, 0x52, 0x65, 0x6c, 0x75, 0x3b, 0x73, 0x65, 0x71, 0x75,
  0x65, 0x6e, 0x74, 0x69, 0x61, 0x6c, 0x2f, 0x64, 0x65, 0x6e, 0x73, 0x65,
  0x2f, 0x42, 0x69, 0x61, 0x73, 0x41, 0x64, 0x64, 0x00, 0x00, 0x00, 0x00,
  0x02, 0x00, 0x00, 0x00, 0x01, 0x00, 0x00, 0x00, 0x18, 0x00, 0x00, 0x00,
  0x4e, 0xfd, 0xff, 0xff, 0x00, 0x00, 0x00, 0x01, 0x10, 0x00, 0x00, 0x00,
  0x10, 0x00, 0x00, 0x00, 0x0b, 0x00, 0x00, 0x00, 0x28, 0x00, 0x00, 0x00,
  0xbc, 0xfc, 0xff, 0xff, 0x19, 0x00, 0x00, 0x00, 0x73, 0x65, 0x71, 0x75,
  0x65, 0x6e, 0x74, 0x69, 0x61, 0x6c, 0x2f, 0x64, 0x65, 0x6e, 0x73, 0x65,
  0x5f, 0x34, 0x2f, 0x4d, 0x61, 0x74, 0x4d, 0x75, 0x6c, 0x00, 0x00, 0x00,
  0x02, 0x00, 0x00, 0x00, 0x03, 0x00, 0x00, 0x00, 0x18, 0x00, 0x00, 0x00,
  0x96, 0xfd, 0xff, 0xff, 0x00, 0x00, 0x00, 0x01, 0x10, 0x00, 0x00, 0x00,
  0x10, 0x00, 0x00, 0x00, 0x0a, 0x00, 0x00, 0x00, 0x28, 0x00, 0x00, 0x00,
  0x04, 0xfd, 0xff, 0xff, 0x19, 0x00, 0x00, 0x00, 0x73, 0x65, 0x71, 0x75,
  0x65, 0x6e, 0x74, 0x69, 0x61, 0x6c, 0x2f, 0x64, 0x65, 0x6e, 0x73, 0x65,
  0x5f, 0x33, 0x2f, 0x4d, 0x61, 0x74, 0x4d, 0x75, 0x6c, 0x00, 0x00, 0x00,
  0x02, 0x00, 0x00, 0x00, 0x18, 0x00, 0x00, 0x00, 0x18, 0x00, 0x00, 0x00,
  0xde, 0xfd, 0xff, 0xff, 0x00, 0x00, 0x00, 0x01, 0x10, 0x00, 0x00, 0x00,
  0x10, 0x00, 0x00, 0x00, 0x09, 0x00, 0x00, 0x00, 0x28, 0x00, 0x00, 0x00,
  0x4c, 0xfd, 0xff, 0xff, 0x19, 0x00, 0x00, 0x00, 0x73, 0x65, 0x71, 0x75,
  0x65, 0x6e, 0x74, 0x69, 0x61, 0x6c, 0x2f, 0x64, 0x65, 0x6e, 0x73, 0x65,
  0x5f, 0x32, 0x2f, 0x4d, 0x61, 0x74, 0x4d, 0x75, 0x6c, 0x00, 0x00, 0x00,
  0x02, 0x00, 0x00, 0x00, 0x18, 0x00, 0x00, 0x00, 0x18, 0x00, 0x00, 0x00,
  0x26, 0xfe, 0xff, 0xff, 0x00, 0x00, 0x00, 0x01, 0x10, 0x00, 0x00, 0x00,
  0x10, 0x00, 0x00, 0x00, 0x08, 0x00, 0x00, 0x00, 0x28, 0x00, 0x00, 0x00,
  0x94, 0xfd, 0xff, 0xff, 0x19, 0x00, 0x00, 0x00, 0x73, 0x65, 0x71, 0x75,
  0x65, 0x6e, 0x74, 0x69, 0x61, 0x6c, 0x2f, 0x64, 0x65, 0x6e, 0x73, 0x65,
  0x5f, 0x31, 0x2f, 0x4d, 0x61, 0x74, 0x4d, 0x75, 0x6c, 0x00, 0x00, 0x00,
  0x02, 0x00, 0x00, 0x00, 0x18, 0x00, 0x00, 0x00, 0x18, 0x00, 0x00, 0x00,
  0x6e, 0xfe, 0xff, 0xff, 0x00, 0x00, 0x00, 0x01, 0x10, 0x00, 0x00, 0x00,
  0x10, 0x00, 0x00, 0x00, 0x07, 0x00, 0x00, 0x00, 0x24, 0x00, 0x00, 0x00,
  0xdc, 0xfd, 0xff, 0xff, 0x17, 0x00, 0x00, 0x00, 0x73, 0x65, 0x71, 0x75,
  0x65, 0x6e, 0x74, 0x69, 0x61, 0x6c, 0x2f, 0x64, 0x65, 0x6e, 0x73, 0x65,
  0x2f, 0x4d, 0x61, 0x74, 0x4d, 0x75, 0x6c, 0x00, 0x02, 0x00, 0x00, 0x00,
  0x18, 0x00, 0x00, 0x00, 0x12, 0x00, 0x00, 0x00, 0xb2, 0xfe, 0xff, 0xff,
  0x00, 0x00, 0x00, 0x01, 0x10, 0x00, 0x00, 0x00, 0x10, 0x00, 0x00, 0x00,
  0x06, 0x00, 0x00, 0x00, 0x34, 0x00, 0x00, 0x00, 0x20, 0xfe, 0xff, 0xff,
  0x27, 0x00, 0x00, 0x00, 0x73, 0x65, 0x71, 0x75, 0x65, 0x6e, 0x74, 0x69,
  0x61, 0x6c, 0x2f, 0x64, 0x65, 0x6e, 0x73, 0x65, 0x2f, 0x42, 0x69, 0x61,
  0x73, 0x41, 0x64, 0x64, 0x2f, 0x52, 0x65, 0x61, 0x64, 0x56, 0x61, 0x72,
  0x69, 0x61, 0x62, 0x6c, 0x65, 0x4f, 0x70, 0x00, 0x01, 0x00, 0x00, 0x00,
  0x18, 0x00, 0x00, 0x00, 0x02, 0xff, 0xff, 0xff, 0x00, 0x00, 0x00, 0x01,
  0x10, 0x00, 0x00, 0x00, 0x10, 0x00, 0x00, 0x00, 0x05, 0x00, 0x00, 0x00,
  0x38, 0x00, 0x00, 0x00, 0x70, 0xfe, 0xff, 0xff, 0x29, 0x00, 0x00, 0x00,
  0x73, 0x65, 0x71, 0x75, 0x65, 0x6e, 0x74, 0x69, 0x61, 0x6c, 0x2f, 0x64,
  0x65, 0x6e, 0x73, 0x65, 0x5f, 0x34, 0x2f, 0x42, 0x69, 0x61, 0x73, 0x41,
  0x64, 0x64, 0x2f, 0x52, 0x65, 0x61, 0x64, 0x56, 0x61, 0x72, 0x69, 0x61,
  0x62, 0x6c, 0x65, 0x4f, 0x70, 0x00, 0x00, 0x00, 0x01, 0x00, 0x00, 0x00,
  0x03, 0x00, 0x00, 0x00, 0x56, 0xff, 0xff, 0xff, 0x00, 0x00, 0x00, 0x01,
  0x10, 0x00, 0x00, 0x00, 0x10, 0x00, 0x00, 0x00, 0x04, 0x00, 0x00, 0x00,
  0x38, 0x00, 0x00, 0x00, 0xc4, 0xfe, 0xff, 0xff, 0x29, 0x00, 0x00, 0x00,
  0x73, 0x65, 0x71, 0x75, 0x65, 0x6e, 0x74, 0x69, 0x61, 0x6c, 0x2f, 0x64,
  0x65, 0x6e, 0x73, 0x65, 0x5f, 0x33, 0x2f, 0x42, 0x69, 0x61, 0x73, 0x41,
  0x64, 0x64, 0x2f, 0x52, 0x65, 0x61, 0x64, 0x56, 0x61, 0x72, 0x69, 0x61,
  0x62, 0x6c, 0x65, 0x4f, 0x70, 0x00, 0x00, 0x00, 0x01, 0x00, 0x00, 0x00,
  0x18, 0x00, 0x00, 0x00, 0xaa, 0xff, 0xff, 0xff, 0x00, 0x00, 0x00, 0x01,
  0x10, 0x00, 0x00, 0x00, 0x10, 0x00, 0x00, 0x00, 0x03, 0x00, 0x00, 0x00,
  0x38, 0x00, 0x00, 0x00, 0x18, 0xff, 0xff, 0xff, 0x29, 0x00, 0x00, 0x00,
  0x73, 0x65, 0x71, 0x75, 0x65, 0x6e, 0x74, 0x69, 0x61, 0x6c, 0x2f, 0x64,
  0x65, 0x6e, 0x73, 0x65, 0x5f, 0x32, 0x2f, 0x42, 0x69, 0x61, 0x73, 0x41,
  0x64, 0x64, 0x2f, 0x52, 0x65, 0x61, 0x64, 0x56, 0x61, 0x72, 0x69, 0x61,
  0x62, 0x6c, 0x65, 0x4f, 0x70, 0x00, 0x00, 0x00, 0x01, 0x00, 0x00, 0x00,
  0x18, 0x00, 0x00, 0x00, 0x00, 0x00, 0x16, 0x00, 0x18, 0x00, 0x14, 0x00,
  0x00, 0x00, 0x10, 0x00, 0x0c, 0x00, 0x08, 0x00, 0x00, 0x00, 0x00, 0x00,
  0x00, 0x00, 0x07, 0x00, 0x16, 0x00, 0x00, 0x00, 0x00, 0x00, 0x00, 0x01,
  0x10, 0x00, 0x00, 0x00, 0x10, 0x00, 0x00, 0x00, 0x02, 0x00, 0x00, 0x00,
  0x38, 0x00, 0x00, 0x00, 0x84, 0xff, 0xff, 0xff, 0x29, 0x00, 0x00, 0x00,
  0x73, 0x65, 0x71, 0x75, 0x65, 0x6e, 0x74, 0x69, 0x61, 0x6c, 0x2f, 0x64,
  0x65, 0x6e, 0x73, 0x65, 0x5f, 0x31, 0x2f, 0x42, 0x69, 0x61, 0x73, 0x41,
  0x64, 0x64, 0x2f, 0x52, 0x65, 0x61, 0x64, 0x56, 0x61, 0x72, 0x69, 0x61,
  0x62, 0x6c, 0x65, 0x4f, 0x70, 0x00, 0x00, 0x00, 0x01, 0x00, 0x00, 0x00,
  0x18, 0x00, 0x00, 0x00, 0x00, 0x00, 0x16, 0x00, 0x1c, 0x00, 0x18, 0x00,
  0x00, 0x00, 0x14, 0x00, 0x10, 0x00, 0x0c, 0x00, 0x00, 0x00, 0x00, 0x00,
  0x08, 0x00, 0x07, 0x00, 0x16, 0x00, 0x00, 0x00, 0x00, 0x00, 0x00, 0x01,
  0x14, 0x00, 0x00, 0x00, 0x20, 0x00, 0x00, 0x00, 0x20, 0x00, 0x00, 0x00,
  0x01, 0x00, 0x00, 0x00, 0x38, 0x00, 0x00, 0x00, 0x02, 0x00, 0x00, 0x00,
  0xff, 0xff, 0xff, 0xff, 0x12, 0x00, 0x00, 0x00, 0x04, 0x00, 0x04, 0x00,
  0x04, 0x00, 0x00, 0x00, 0x19, 0x00, 0x00, 0x00, 0x73, 0x65, 0x72, 0x76,
  0x69, 0x6e, 0x67, 0x5f, 0x64, 0x65, 0x66, 0x61, 0x75, 0x6c, 0x74, 0x5f,
  0x69, 0x6e, 0x70, 0x75, 0x74, 0x5f, 0x31, 0x3a, 0x30, 0x00, 0x00, 0x00,
  0x02, 0x00, 0x00, 0x00, 0x01, 0x00, 0x00, 0x00, 0x12, 0x00, 0x00, 0x00,
  0x02, 0x00, 0x00, 0x00, 0x20, 0x00, 0x00, 0x00, 0x04, 0x00, 0x00, 0x00,
  0xf4, 0xff, 0xff, 0xff, 0x19, 0x00, 0x00, 0x00, 0x00, 0x00, 0x00, 0x19,
  0x0c, 0x00, 0x0c, 0x00, 0x0b, 0x00, 0x00, 0x00, 0x00, 0x00, 0x04, 0x00,
  0x0c, 0x00, 0x00, 0x00, 0x09, 0x00, 0x00, 0x00, 0x00, 0x00, 0x00, 0x09
};
static unsigned int TfLiteModel_tflite_len = 12252;
